#include "magic_wand_model_data.h"

// We need to keep the data array aligned on some architectures.
#ifdef __has_attribute
#define HAVE_ATTRIBUTE(x) __has_attribute(x)
#else
#define HAVE_ATTRIBUTE(x) 0
#endif
#if HAVE_ATTRIBUTE(aligned) || (defined(__GNUC__) && !defined(__clang__))
#define DATA_ALIGN_ATTRIBUTE __attribute__((aligned(4)))
#else
#define DATA_ALIGN_ATTRIBUTE
#endif
const unsigned char g_magic_wand_model_data[] DATA_ALIGN_ATTRIBUTE = {
  0x1c, 0x00, 0x00, 0x00, 0x54, 0x46, 0x4c, 0x33, 0x14, 0x00, 0x20, 0x00,
  0x04, 0x00, 0x08, 0x00, 0x0c, 0x00, 0x10, 0x00, 0x14, 0x00, 0x00, 0x00,
  0x18, 0x00, 0x1c, 0x00, 0x14, 0x00, 0x00, 0x00, 0x03, 0x00, 0x00, 0x00,
  0x18, 0x00, 0x00, 0x00, 0x2c, 0x00, 0x00, 0x00, 0xd8, 0x00, 0x00, 0x00,
  0x2c, 0x00, 0x00, 0x00, 0x80, 0x00, 0x00, 0x00, 0x78, 0x00, 0x00, 0x00,
  0x05, 0x00, 0x00, 0x00, 0x28, 0x07, 0x00, 0x00, 0x44, 0x06, 0x00, 0x00,
  0xbc, 0x03, 0x00, 0x00, 0xf8, 0x02, 0x00, 0x00, 0xac, 0x01, 0x00, 0x00,
  0x01, 0x00, 0x00, 0x00, 0xd0, 0x00, 0x00, 0x00, 0x14, 0x00, 0x00, 0x00,
  0x98, 0x32, 0x00, 0x00, 0x94, 0x32, 0x00, 0x00, 0x8c, 0x31, 0x00, 0x00,
  0xd8, 0x30, 0x00, 0x00, 0x30, 0x30, 0x00, 0x00, 0xbc, 0x2f, 0x00, 0x00,
  0x50, 0x2f, 0x00, 0x00, 0x00, 0x13, 0x00, 0x00, 0xec, 0x11, 0x00, 0x00,
  0x10, 0x10, 0x00, 0x00, 0xb4, 0x07, 0x00, 0x00, 0x6c, 0x32, 0x00, 0x00,
  0x68, 0x32, 0x00, 0x00, 0x64, 0x32, 0x00, 0x00, 0x60, 0x32, 0x00, 0x00,
  0x5c, 0x32, 0x00, 0x00, 0x58, 0x32, 0x00, 0x00, 0x54, 0x32, 0x00, 0x00,
  0x50, 0x32, 0x00, 0x00, 0x3c, 0x00, 0x00, 0x00, 0x00, 0x00, 0x00, 0x00,
  0x01, 0x00, 0x00, 0x00, 0x0c, 0x00, 0x00, 0x00, 0x08, 0x00, 0x0c, 0x00,
  0x04, 0x00, 0x08, 0x00, 0x08, 0x00, 0x00, 0x00, 0x08, 0x00, 0x00, 0x00,
  0x13, 0x00, 0x00, 0x00, 0x13, 0x00, 0x00, 0x00, 0x6d, 0x69, 0x6e, 0x5f,
  0x72, 0x75, 0x6e, 0x74, 0x69, 0x6d, 0x65, 0x5f, 0x76, 0x65, 0x72, 0x73,
  0x69, 0x6f, 0x6e, 0x00, 0xfa, 0xce, 0xff, 0xff, 0x04, 0x00, 0x00, 0x00,
  0x10, 0x00, 0x00, 0x00, 0x31, 0x2e, 0x35, 0x2e, 0x30, 0x00, 0x00, 0x00,
  0x00, 0x00, 0x00, 0x00, 0x00, 0x00, 0x00, 0x00, 0x0f, 0x00, 0x00, 0x00,
  0x4d, 0x4c, 0x49, 0x52, 0x20, 0x43, 0x6f, 0x6e, 0x76, 0x65, 0x72, 0x74,
  0x65, 0x64, 0x2e, 0x00, 0x00, 0x00, 0x0e, 0x00, 0x18, 0x00, 0x04, 0x00,
  0x08, 0x00, 0x0c, 0x00, 0x10, 0x00, 0x14, 0x00, 0x0e, 0x00, 0x00, 0x00,
  0x14, 0x00, 0x00, 0x00, 0x5c, 0x00, 0x00, 0x00, 0x60, 0x00, 0x00, 0x00,
  0x64, 0x00, 0x00, 0x00, 0x84, 0x00, 0x00, 0x00, 0x12, 0x00, 0x00, 0x00,
  0x58, 0x31, 0x00, 0x00, 0xe8, 0x30, 0x00, 0x00, 0x44, 0x30, 0x00, 0x00,
  0x9c, 0x2f, 0x00, 0x00, 0xf4, 0x2e, 0x00, 0x00, 0x94, 0x2e, 0x00, 0x00,
  0x2c, 0x2e, 0x00, 0x00, 0xd8, 0x11, 0x00, 0x00, 0xbc, 0x10, 0x00, 0x00,
  0xe0, 0x0e, 0x00, 0x00, 0x0c, 0x06, 0x00, 0x00, 0x28, 0x05, 0x00, 0x00,
  0xe8, 0x03, 0x00, 0x00, 0x3c, 0x03, 0x00, 0x00, 0x98, 0x02, 0x00, 0x00,
  0xd4, 0x01, 0x00, 0x00, 0x10, 0x01, 0x00, 0x00, 0x84, 0x00, 0x00, 0x00,
  0x01, 0x00, 0x00, 0x00, 0x00, 0x00, 0x00, 0x00, 0x01, 0x00, 0x00, 0x00,
  0x11, 0x00, 0x00, 0x00, 0x08, 0x00, 0x00, 0x00, 0x74, 0x05, 0x00, 0x00,
  0x94, 0x04, 0x00, 0x00, 0x78, 0x03, 0x00, 0x00, 0xbc, 0x02, 0x00, 0x00,
  0x30, 0x02, 0x00, 0x00, 0x50, 0x01, 0x00, 0x00, 0xa8, 0x00, 0x00, 0x00,
  0x10, 0x00, 0x00, 0x00, 0x04, 0x00, 0x00, 0x00, 0x6d, 0x61, 0x69, 0x6e,
  0x00, 0x00, 0x00, 0x00, 0x7a, 0xff, 0xff, 0xff, 0x00, 0x00, 0x00, 0x09,
  0x04, 0x00, 0x00, 0x00, 0x1c, 0x00, 0x00, 0x00, 0x10, 0x00, 0x00, 0x00,
  0x04, 0x00, 0x00, 0x00, 0xf6, 0xcf, 0xff, 0xff, 0x00, 0x00, 0x80, 0x3f,
  0x01, 0x00, 0x00, 0x00, 0x11, 0x00, 0x00, 0x00, 0x01, 0x00, 0x00, 0x00,
  0x10, 0x00, 0x00, 0x00, 0xa0, 0xfa, 0xff, 0xff, 0x19, 0x00, 0x00, 0x00,
  0x00, 0x00, 0x00, 0x19, 0x01, 0x00, 0x00, 0x00, 0x84, 0xcf, 0xff, 0xff,
  0x14, 0x00, 0x00, 0x00, 0x12, 0x00, 0x00, 0x00, 0x18, 0x00, 0x00, 0x00,
  0x30, 0x00, 0x00, 0x00, 0x20, 0x00, 0x00, 0x00, 0x02, 0x00, 0x00, 0x00,
  0x01, 0x00, 0x00, 0x00, 0x03, 0x00, 0x00, 0x00, 0x08, 0x00, 0x00, 0x00,
  0x49, 0x64, 0x65, 0x6e, 0x74, 0x69, 0x74, 0x79, 0x00, 0x00, 0x00, 0x00,
  0x02, 0x00, 0x00, 0x00, 0xff, 0xff, 0xff, 0xff, 0x03, 0x00, 0x00, 0x00,
  0x68, 0xd0, 0xff, 0xff, 0x00, 0x00, 0x0e, 0x00, 0x18, 0x00, 0x08, 0x00,
  0x0c, 0x00, 0x10, 0x00, 0x07, 0x00, 0x14, 0x00, 0x0e, 0x00, 0x00, 0x00,
  0x00, 0x00, 0x00, 0x08, 0x03, 0x00, 0x00, 0x00, 0x18, 0x00, 0x00, 0x00,
  0x0c, 0x00, 0x00, 0x00, 0x04, 0x00, 0x00, 0x00, 0x84, 0xcf, 0xff, 0xff,
  0x01, 0x00, 0x00, 0x00, 0x10, 0x00, 0x00, 0x00, 0x03, 0x00, 0x00, 0x00,
  0x0f, 0x00, 0x00, 0x00, 0x07, 0x00, 0x00, 0x00, 0x04, 0x00, 0x00, 0x00,
  0x0c, 0xd0, 0xff, 0xff, 0x14, 0x00, 0x00, 0x00, 0x11, 0x00, 0x00, 0x00,
  0x18, 0x00, 0x00, 0x00, 0x5c, 0x00, 0x00, 0x00, 0x4c, 0x00, 0x00, 0x00,
  0x02, 0x00, 0x00, 0x00, 0x01, 0x00, 0x00, 0x00, 0x03, 0x00, 0x00, 0x00,
  0x34, 0x00, 0x00, 0x00, 0x73, 0x65, 0x71, 0x75, 0x65, 0x6e, 0x74, 0x69,
  0x61, 0x6c, 0x2f, 0x64, 0x65, 0x6e, 0x73, 0x65, 0x5f, 0x31, 0x2f, 0x4d,
  0x61, 0x74, 0x4d, 0x75, 0x6c, 0x3b, 0x73, 0x65, 0x71, 0x75, 0x65, 0x6e,
  0x74, 0x69, 0x61, 0x6c, 0x2f, 0x64, 0x65, 0x6e, 0x73, 0x65, 0x5f, 0x31,
  0x2f, 0x42, 0x69, 0x61, 0x73, 0x41, 0x64, 0x64, 0x00, 0x00, 0x00, 0x00,
  0x02, 0x00, 0x00, 0x00, 0xff, 0xff, 0xff, 0xff, 0x03, 0x00, 0x00, 0x00,
  0x0c, 0xd0, 0xff, 0xff, 0xda, 0xfc, 0xff, 0xff, 0x00, 0x00, 0x00, 0x08,
  0x03, 0x00, 0x00, 0x00, 0x24, 0x00, 0x00, 0x00, 0x18, 0x00, 0x00, 0x00,
  0x0c, 0x00, 0x00, 0x00, 0x00, 0x00, 0x06, 0x00, 0x08, 0x00, 0x07, 0x00,
  0x06, 0x00, 0x00, 0x00, 0x00, 0x00, 0x00, 0x01, 0x01, 0x00, 0x00, 0x00,
  0x0f, 0x00, 0x00, 0x00, 0x03, 0x00, 0x00, 0x00, 0x0e, 0x00, 0x00, 0x00,
  0x06, 0x00, 0x00, 0x00, 0x03, 0x00, 0x00, 0x00, 0xe8, 0xfb, 0xff, 0xff,
  0x09, 0x00, 0x00, 0x00, 0x00, 0x00, 0x00, 0x09, 0x01, 0x00, 0x00, 0x00,
  0xcc, 0xd0, 0xff, 0xff, 0x14, 0x00, 0x00, 0x00, 0x10, 0x00, 0x00, 0x00,
  0x18, 0x00, 0x00, 0x00, 0x6c, 0x00, 0x00, 0x00, 0x5c, 0x00, 0x00, 0x00,
  0x02, 0x00, 0x00, 0x00, 0x01, 0x00, 0x00, 0x00, 0x10, 0x00, 0x00, 0x00,
  0x46, 0x00, 0x00, 0x00, 0x73, 0x65, 0x71, 0x75, 0x65, 0x6e, 0x74, 0x69,
  0x61, 0x6c, 0x2f, 0x64, 0x65, 0x6e, 0x73, 0x65, 0x2f, 0x4d, 0x61, 0x74,
  0x4d, 0x75, 0x6c, 0x3b, 0x73, 0x65, 0x71, 0x75, 0x65, 0x6e, 0x74, 0x69,
  0x61, 0x6c, 0x2f, 0x64, 0x65, 0x6e, 0x73, 0x65, 0x2f, 0x52, 0x65, 0x6c,
  0x75, 0x3b, 0x73, 0x65, 0x71, 0x75, 0x65, 0x6e, 0x74, 0x69, 0x61, 0x6c,
  0x2f, 0x64, 0x65, 0x6e, 0x73, 0x65, 0x2f, 0x42, 0x69, 0x61, 0x73, 0x41,
  0x64, 0x64, 0x00, 0x00, 0x02, 0x00, 0x00, 0x00, 0xff, 0xff, 0xff, 0xff,
  0x10, 0x00, 0x00, 0x00, 0xec, 0xd1, 0xff, 0xff, 0x00, 0x00, 0x0a, 0x00,
  0x10, 0x00, 0x04, 0x00, 0x08, 0x00, 0x0c, 0x00, 0x0a, 0x00, 0x00, 0x00,
  0x02, 0x00, 0x00, 0x00, 0x10, 0x00, 0x00, 0x00, 0x04, 0x00, 0x00, 0x00,
  0x01, 0x00, 0x00, 0x00, 0x0e, 0x00, 0x00, 0x00, 0x02, 0x00, 0x00, 0x00,
  0x0d, 0x00, 0x00, 0x00, 0x05, 0x00, 0x00, 0x00, 0xa8, 0xfc, 0xff, 0xff,
  0x16, 0x00, 0x00, 0x00, 0x00, 0x00, 0x00, 0x16, 0x01, 0x00, 0x00, 0x00,
  0x8c, 0xd1, 0xff, 0xff, 0x14, 0x00, 0x00, 0x00, 0x0f, 0x00, 0x00, 0x00,
  0x18, 0x00, 0x00, 0x00, 0x40, 0x00, 0x00, 0x00, 0x30, 0x00, 0x00, 0x00,
  0x02, 0x00, 0x00, 0x00, 0x01, 0x00, 0x00, 0x00, 0x70, 0x00, 0x00, 0x00,
  0x1a, 0x00, 0x00, 0x00, 0x73, 0x65, 0x71, 0x75, 0x65, 0x6e, 0x74, 0x69,
  0x61, 0x6c, 0x2f, 0x66, 0x6c, 0x61, 0x74, 0x74, 0x65, 0x6e, 0x2f, 0x52,
  0x65, 0x73, 0x68, 0x61, 0x70, 0x65, 0x00, 0x00, 0x02, 0x00, 0x00, 0x00,
  0xff, 0xff, 0xff, 0xff, 0x70, 0x00, 0x00, 0x00, 0x70, 0xd1, 0xff, 0xff,
  0x3e, 0xfe, 0xff, 0xff, 0x00, 0x00, 0x00, 0x05, 0x01, 0x00, 0x00, 0x00,
  0x38, 0x00, 0x00, 0x00, 0x2c, 0x00, 0x00, 0x00, 0x14, 0x00, 0x00, 0x00,
  0x00, 0x00, 0x0e, 0x00, 0x14, 0x00, 0x00, 0x00, 0x10, 0x00, 0x0c, 0x00,
  0x08, 0x00, 0x04, 0x00, 0x0e, 0x00, 0x00, 0x00, 0x03, 0x00, 0x00, 0x00,
  0x01, 0x00, 0x00, 0x00, 0x03, 0x00, 0x00, 0x00, 0x01, 0x00, 0x00, 0x00,
  0x01, 0x00, 0x00, 0x00, 0x0d, 0x00, 0x00, 0x00, 0x01, 0x00, 0x00, 0x00,
  0x0c, 0x00, 0x00, 0x00, 0x2c, 0xd2, 0xff, 0xff, 0x14, 0x00, 0x00, 0x00,
  0x0e, 0x00, 0x00, 0x00, 0x20, 0x00, 0x00, 0x00, 0x58, 0x00, 0x00, 0x00,
  0x40, 0x00, 0x00, 0x00, 0x04, 0x00, 0x00, 0x00, 0x01, 0x00, 0x00, 0x00,
  0x07, 0x00, 0x00, 0x00, 0x01, 0x00, 0x00, 0x00, 0x10, 0x00, 0x00, 0x00,
  0x22, 0x00, 0x00, 0x00, 0x73, 0x65, 0x71, 0x75, 0x65, 0x6e, 0x74, 0x69,
  0x61, 0x6c, 0x2f, 0x6d, 0x61, 0x78, 0x5f, 0x70, 0x6f, 0x6f, 0x6c, 0x69,
  0x6e, 0x67, 0x32, 0x64, 0x5f, 0x31, 0x2f, 0x4d, 0x61, 0x78, 0x50, 0x6f,
  0x6f, 0x6c, 0x00, 0x00, 0x04, 0x00, 0x00, 0x00, 0xff, 0xff, 0xff, 0xff,
  0x07, 0x00, 0x00, 0x00, 0x01, 0x00, 0x00, 0x00, 0x10, 0x00, 0x00, 0x00,
  0x28, 0xd2, 0xff, 0xff, 0x1a, 0xfe, 0xff, 0xff, 0x00, 0x00, 0x00, 0x01,
  0x24, 0x00, 0x00, 0x00, 0x18, 0x00, 0x00, 0x00, 0x04, 0x00, 0x00, 0x00,
  0x0c, 0xfe, 0xff, 0xff, 0x01, 0x00, 0x00, 0x00, 0x01, 0x00, 0x00, 0x00,
  0x00, 0x00, 0x00, 0x01, 0x01, 0x00, 0x00, 0x00, 0x0c, 0x00, 0x00, 0x00,
  0x03, 0x00, 0x00, 0x00, 0x0b, 0x00, 0x00, 0x00, 0x09, 0x00, 0x00, 0x00,
  0x02, 0x00, 0x00, 0x00, 0xd4, 0xd2, 0xff, 0xff, 0x14, 0x00, 0x00, 0x00,
  0x0d, 0x00, 0x00, 0x00, 0x20, 0x00, 0x00, 0x00, 0xb8, 0x00, 0x00, 0x00,
  0xa0, 0x00, 0x00, 0x00, 0x04, 0x00, 0x00, 0x00, 0x01, 0x00, 0x00, 0x00,
  0x15, 0x00, 0x00, 0x00, 0x01, 0x00, 0x00, 0x00, 0x10, 0x00, 0x00, 0x00,
  0x83, 0x00, 0x00, 0x00, 0x73, 0x65, 0x71, 0x75, 0x65, 0x6e, 0x74, 0x69,
  0x61, 0x6c, 0x2f, 0x63, 0x6f, 0x6e, 0x76, 0x32, 0x64, 0x5f, 0x31, 0x2f,
  0x52, 0x65, 0x6c, 0x75, 0x3b, 0x73, 0x65, 0x71, 0x75, 0x65, 0x6e, 0x74,
  0x69, 0x61, 0x6c, 0x2f, 0x63, 0x6f, 0x6e, 0x76, 0x32, 0x64, 0x5f, 0x31,
  0x2f, 0x42, 0x69, 0x61, 0x73, 0x41, 0x64, 0x64, 0x3b, 0x73, 0x65, 0x71,
  0x75, 0x65, 0x6e, 0x74, 0x69, 0x61, 0x6c, 0x2f, 0x63, 0x6f, 0x6e, 0x76,
  0x32, 0x64, 0x5f, 0x31, 0x2f, 0x43, 0x6f, 0x6e, 0x76, 0x32, 0x44, 0x3b,
  0x73, 0x65, 0x71, 0x75, 0x65, 0x6e, 0x74, 0x69, 0x61, 0x6c, 0x2f, 0x63,
  0x6f, 0x6e, 0x76, 0x32, 0x64, 0x5f, 0x31, 0x2f, 0x42, 0x69, 0x61, 0x73,
  0x41, 0x64, 0x64, 0x2f, 0x52, 0x65, 0x61, 0x64, 0x56, 0x61, 0x72, 0x69,
  0x61, 0x62, 0x6c, 0x65, 0x4f, 0x70, 0x2f, 0x72, 0x65, 0x73, 0x6f, 0x75,
  0x72, 0x63, 0x65, 0x00, 0x04, 0x00, 0x00, 0x00, 0xff, 0xff, 0xff, 0xff,
  0x15, 0x00, 0x00, 0x00, 0x01, 0x00, 0x00, 0x00, 0x10, 0x00, 0x00, 0x00,
  0x40, 0xd4, 0xff, 0xff, 0x00, 0x00, 0x0e, 0x00, 0x1a, 0x00, 0x08, 0x00,
  0x0c, 0x00, 0x10, 0x00, 0x07, 0x00, 0x14, 0x00, 0x0e, 0x00, 0x00, 0x00,
  0x00, 0x00, 0x00, 0x05, 0x01, 0x00, 0x00, 0x00, 0x3c, 0x00, 0x00, 0x00,
  0x30, 0x00, 0x00, 0x00, 0x14, 0x00, 0x00, 0x00, 0x00, 0x00, 0x0e, 0x00,
  0x18, 0x00, 0x17, 0x00, 0x10, 0x00, 0x0c, 0x00, 0x08, 0x00, 0x04, 0x00,
  0x0e, 0x00, 0x00, 0x00, 0x03, 0x00, 0x00, 0x00, 0x03, 0x00, 0x00, 0x00,
  0x03, 0x00, 0x00, 0x00, 0x03, 0x00, 0x00, 0x00, 0x00, 0x00, 0x00, 0x01,
  0x01, 0x00, 0x00, 0x00, 0x0b, 0x00, 0x00, 0x00, 0x01, 0x00, 0x00, 0x00,
  0x0a, 0x00, 0x00, 0x00, 0x2c, 0xff, 0xff, 0xff, 0x11, 0x00, 0x00, 0x00,
  0x00, 0x00, 0x00, 0x11, 0x01, 0x00, 0x00, 0x00, 0x10, 0xd4, 0xff, 0xff,
  0x14, 0x00, 0x00, 0x00, 0x0c, 0x00, 0x00, 0x00, 0x20, 0x00, 0x00, 0x00,
  0x58, 0x00, 0x00, 0x00, 0x40, 0x00, 0x00, 0x00, 0x04, 0x00, 0x00, 0x00,
  0x01, 0x00, 0x00, 0x00, 0x15, 0x00, 0x00, 0x00, 0x01, 0x00, 0x00, 0x00,
  0x08, 0x00, 0x00, 0x00, 0x20, 0x00, 0x00, 0x00, 0x73, 0x65, 0x71, 0x75,
  0x65, 0x6e, 0x74, 0x69, 0x61, 0x6c, 0x2f, 0x6d, 0x61, 0x78, 0x5f, 0x70,
  0x6f, 0x6f, 0x6c, 0x69, 0x6e, 0x67, 0x32, 0x64, 0x2f, 0x4d, 0x61, 0x78,
  0x50, 0x6f, 0x6f, 0x6c, 0x00, 0x00, 0x00, 0x00, 0x04, 0x00, 0x00, 0x00,
  0xff, 0xff, 0xff, 0xff, 0x15, 0x00, 0x00, 0x00, 0x01, 0x00, 0x00, 0x00,
  0x08, 0x00, 0x00, 0x00, 0x1c, 0xd5, 0xff, 0xff, 0x00, 0x00, 0x0e, 0x00,
  0x14, 0x00, 0x00, 0x00, 0x08, 0x00, 0x0c, 0x00, 0x07, 0x00, 0x10, 0x00,
  0x0e, 0x00, 0x00, 0x00, 0x00, 0x00, 0x00, 0x01, 0x30, 0x00, 0x00, 0x00,
  0x24, 0x00, 0x00, 0x00, 0x10, 0x00, 0x00, 0x00, 0x0c, 0x00, 0x10, 0x00,
  0x00, 0x00, 0x04, 0x00, 0x08, 0x00, 0x0f, 0x00, 0x0c, 0x00, 0x00, 0x00,
  0x01, 0x00, 0x00, 0x00, 0x01, 0x00, 0x00, 0x00, 0x00, 0x00, 0x00, 0x01,
  0x01, 0x00, 0x00, 0x00, 0x0a, 0x00, 0x00, 0x00, 0x03, 0x00, 0x00, 0x00,
  0x00, 0x00, 0x00, 0x00, 0x08, 0x00, 0x00, 0x00, 0x01, 0x00, 0x00, 0x00,
  0x0c, 0x00, 0x10, 0x00, 0x0b, 0x00, 0x00, 0x00, 0x0c, 0x00, 0x04, 0x00,
  0x0c, 0x00, 0x00, 0x00, 0x03, 0x00, 0x00, 0x00, 0x00, 0x00, 0x00, 0x03,
  0x01, 0x00, 0x00, 0x00, 0xf0, 0xd4, 0xff, 0xff, 0x14, 0x00, 0x00, 0x00,
  0x0b, 0x00, 0x00, 0x00, 0x20, 0x00, 0x00, 0x00, 0xb0, 0x00, 0x00, 0x00,
  0x98, 0x00, 0x00, 0x00, 0x04, 0x00, 0x00, 0x00, 0x01, 0x00, 0x00, 0x00,
  0x40, 0x00, 0x00, 0x00, 0x03, 0x00, 0x00, 0x00, 0x08, 0x00, 0x00, 0x00,
  0x7b, 0x00, 0x00, 0x00, 0x73, 0x65, 0x71, 0x75, 0x65, 0x6e, 0x74, 0x69,
  0x61, 0x6c, 0x2f, 0x63, 0x6f, 0x6e, 0x76, 0x32, 0x64, 0x2f, 0x52, 0x65,
  0x6c, 0x75, 0x3b, 0x73, 0x65, 0x71, 0x75, 0x65, 0x6e, 0x74, 0x69, 0x61,
  0x6c, 0x2f, 0x63, 0x6f, 0x6e, 0x76, 0x32, 0x64, 0x2f, 0x42, 0x69, 0x61,
  0x73, 0x41, 0x64, 0x64, 0x3b, 0x73, 0x65, 0x71, 0x75, 0x65, 0x6e, 0x74,
  0x69, 0x61, 0x6c, 0x2f, 0x63, 0x6f, 0x6e, 0x76, 0x32, 0x64, 0x2f, 0x43,
  0x6f, 0x6e, 0x76, 0x32, 0x44, 0x3b, 0x73, 0x65, 0x71, 0x75, 0x65, 0x6e,
  0x74, 0x69, 0x61, 0x6c, 0x2f, 0x63, 0x6f, 0x6e, 0x76, 0x32, 0x64, 0x2f,
  0x42, 0x69, 0x61, 0x73, 0x41, 0x64, 0x64, 0x2f, 0x52, 0x65, 0x61, 0x64,
  0x56, 0x61, 0x72, 0x69, 0x61, 0x62, 0x6c, 0x65, 0x4f, 0x70, 0x2f, 0x72,
  0x65, 0x73, 0x6f, 0x75, 0x72, 0x63, 0x65, 0x00, 0x04, 0x00, 0x00, 0x00,
  0xff, 0xff, 0xff, 0xff, 0x40, 0x00, 0x00, 0x00, 0x03, 0x00, 0x00, 0x00,
  0x08, 0x00, 0x00, 0x00, 0x44, 0xd5, 0xff, 0xff, 0x4e, 0xd6, 0xff, 0xff,
  0x04, 0x00, 0x00, 0x00, 0x00, 0x08, 0x00, 0x00, 0x3f, 0x02, 0x2c, 0xbe,
  0xb5, 0x4c, 0xaa, 0xbe, 0x1a, 0xc5, 0xf9, 0xbe, 0x72, 0xb3, 0x91, 0xbd,
  0xe4, 0x1e, 0x70, 0xbe, 0xd3, 0x8a, 0xd4, 0xbe, 0x84, 0xa7, 0xb7, 0xbd,
  0xb5, 0xb1, 0x83, 0xbe, 0x5c, 0x78, 0x28, 0xbb, 0x14, 0x62, 0xca, 0x3e,
  0xbb, 0x07, 0x12, 0xbf, 0x86, 0x97, 0x0d, 0xbe, 0x66, 0x20, 0xca, 0xbe,
  0xd5, 0x78, 0x14, 0xbf, 0x5b, 0x2a, 0x84, 0x3e, 0x50, 0x50, 0x79, 0xbd,
  0x85, 0x3f, 0x4b, 0x3e, 0x66, 0x25, 0xac, 0xbe, 0x18, 0x67, 0xf9, 0x3d,
  0x31, 0xd0, 0x89, 0x3d, 0x6f, 0x12, 0x65, 0xbc, 0x2d, 0x12, 0x14, 0x3e,
  0x00, 0x8a, 0xb6, 0xbd, 0x54, 0xdd, 0x11, 0x3e, 0xdb, 0x0f, 0x46, 0xbe,
  0xfe, 0xb4, 0x5b, 0xbe, 0xff, 0xd4, 0x7b, 0x3d, 0xbb, 0xfd, 0x11, 0x3e,
  0x95, 0x6e, 0x67, 0x3e, 0xee, 0x1d, 0x46, 0x3e, 0x4c, 0xae, 0xed, 0xbd,
  0xc8, 0xca, 0x94, 0xbe, 0x62, 0x97, 0x36, 0x3e, 0xba, 0xff, 0x8f, 0xbe,
  0x74, 0x8e, 0x52, 0x3e, 0xe4, 0x50, 0xa9, 0x3e, 0x1a, 0xbf, 0x96, 0x3d,
  0x89, 0xb3, 0x55, 0x3e, 0x1e, 0x9c, 0x27, 0xbe, 0xe6, 0x80, 0x58, 0xbe,
  0xef, 0x80, 0x14, 0xbf, 0xa1, 0x11, 0xaf, 0xbd, 0xc5, 0x5d, 0x92, 0x3b,
  0xc9, 0xf8, 0x63, 0x3c, 0x57, 0x2a, 0x18, 0x3e, 0x24, 0x9a, 0x65, 0x3e,
  0xa8, 0xdb, 0x48, 0x3c, 0xff, 0x92, 0x01, 0xbf, 0x3a, 0x69, 0xac, 0xbc,
  0xdb, 0xd2, 0x7d, 0xbd, 0x12, 0x43, 0x19, 0xbd, 0x40, 0x98, 0xc4, 0xbe,
  0xe3, 0x6f, 0x5b, 0x3e, 0x7c, 0x3a, 0x01, 0xbf, 0x9e, 0x1f, 0x86, 0xbd,
  0x0d, 0x7a, 0x57, 0xbe, 0xb4, 0xa7, 0x2b, 0xbe, 0xe8, 0x3b, 0xad, 0x3c,
  0x10, 0x55, 0x9b, 0x3c, 0x76, 0x7c, 0xd0, 0xbe, 0x34, 0xa0, 0x47, 0xbe,
  0xc6, 0x9b, 0xab, 0xbd, 0xe3, 0x1a, 0x32, 0x3e, 0x58, 0x84, 0x61, 0xbd,
  0xa1, 0xe4, 0x47, 0xbe, 0xe1, 0x6e, 0x99, 0x3d, 0x48, 0x6b, 0xe2, 0xbd,
  0xd1, 0xf1, 0xc3, 0xbd, 0xd3, 0xd6, 0xf8, 0xbe, 0x96, 0x56, 0x1f, 0xbd,
  0x36, 0x35, 0x86, 0x3d, 0xee, 0xbe, 0x0b, 0xbe, 0x56, 0xfa, 0x2a, 0xbd,
  0xf0, 0xe6, 0xf9, 0xbc, 0xad, 0xea, 0xa0, 0xbd, 0x61, 0x49, 0x2b, 0x3f,
  0xe6, 0x62, 0x8f, 0xbc, 0x7a, 0x48, 0x2f, 0xbd, 0xbf, 0x72, 0xe7, 0xbd,
  0x2e, 0x39, 0x7d, 0xbd, 0x29, 0x74, 0x01, 0xbe, 0x06, 0x96, 0xca, 0xbd,
  0x7a, 0xbd, 0x53, 0x3d, 0xa1, 0x59, 0x48, 0xbe, 0x5d, 0x39, 0x58, 0x3e,
  0x40, 0x6d, 0x9d, 0x3d, 0xfc, 0x8e, 0x7b, 0xbd, 0xd4, 0xe1, 0x93, 0xbe,
  0xc7, 0xfa, 0x48, 0xbe, 0xaa, 0xc2, 0x8d, 0xbc, 0xa7, 0xf9, 0x5a, 0x3e,
  0xbb, 0x39, 0xbf, 0xbd, 0x85, 0x98, 0x63, 0xbd, 0xb7, 0xef, 0xd2, 0x3d,
  0xd8, 0x10, 0x4d, 0xbd, 0x89, 0xc5, 0x89, 0xbe, 0x4c, 0xc0, 0x65, 0xbd,
  0xb7, 0x4d, 0xac, 0xbd, 0x1b, 0xa3, 0x1e, 0xbe, 0x4c, 0x65, 0x45, 0xbe,
  0x34, 0xc5, 0xc9, 0xbd, 0xdf, 0xb3, 0x33, 0xbe, 0x39, 0x54, 0x13, 0xbc,
  0xf8, 0xa4, 0xa1, 0x3d, 0xd6, 0x22, 0xa4, 0x3d, 0x7e, 0xc4, 0x0e, 0xbe,
  0x64, 0xa2, 0x86, 0x3c, 0x93, 0x28, 0x81, 0x3e, 0xf2, 0xcb, 0x0c, 0xbe,
  0xd5, 0xec, 0xe2, 0xbc, 0x2c, 0x74, 0x05, 0xbe, 0x02, 0x35, 0x8f, 0x3d,
  0x74, 0x6e, 0x89, 0xbe, 0xaf, 0x08, 0x59, 0xbe, 0x7a, 0xb6, 0xbd, 0x3e,
  0x69, 0x84, 0xde, 0xbd, 0x56, 0xd7, 0x8f, 0x3e, 0x80, 0x31, 0x06, 0x3e,
  0x1e, 0xdf, 0x03, 0xbe, 0xb4, 0x39, 0x7e, 0xbd, 0xb1, 0xbd, 0xc7, 0xbe,
  0x6b, 0xaf, 0x65, 0x3b, 0x02, 0x11, 0x92, 0xbd, 0x68, 0x6f, 0x16, 0xbe,
  0x57, 0xef, 0xf0, 0x3c, 0x44, 0x8e, 0xc5, 0xbd, 0xb4, 0xfb, 0x9a, 0x3d,
  0x6e, 0x0e, 0x44, 0xbe, 0xfb, 0xf1, 0x62, 0x3e, 0xae, 0x10, 0x65, 0xbf,
  0x16, 0x08, 0xfa, 0xbe, 0x8d, 0x44, 0x7f, 0x3e, 0xaf, 0xc3, 0x11, 0xbe,
  0x8c, 0xa8, 0x0b, 0xbe, 0xd2, 0xf7, 0x38, 0xbf, 0x8b, 0x99, 0xbb, 0x3e,
  0xe4, 0xf2, 0xeb, 0x3d, 0xc1, 0x9f, 0x19, 0xbe, 0x2f, 0x15, 0x07, 0x3c,
  0x8f, 0x01, 0x4e, 0xbd, 0x62, 0x3c, 0xbd, 0x3d, 0x5b, 0x20, 0xa0, 0x3b,
  0xee, 0xc8, 0x80, 0xbe, 0x04, 0x54, 0x11, 0x3d, 0xdc, 0x69, 0x61, 0xbe,
  0x80, 0x31, 0x68, 0xbe, 0xe1, 0xdd, 0xb6, 0x3c, 0xb0, 0x99, 0x2a, 0xbc,
  0xc3, 0x54, 0xfc, 0x3d, 0x56, 0xa9, 0xcb, 0xbd, 0xd3, 0xd8, 0x0f, 0xbe,
  0xcf, 0xa0, 0xc0, 0xbd, 0x55, 0xa7, 0xf1, 0xbd, 0x75, 0xab, 0xfb, 0xbd,
  0x38, 0x16, 0xfe, 0xbb, 0xe0, 0xcd, 0x18, 0xbd, 0xbc, 0x06, 0x89, 0xbc,
  0x30, 0x54, 0xb6, 0x3d, 0x3b, 0x19, 0x9c, 0xbd, 0x1a, 0x51, 0xac, 0xbd,
  0x44, 0x83, 0x4e, 0x3d, 0x56, 0x86, 0xce, 0x3d, 0xf8, 0xe5, 0x03, 0x3e,
  0x14, 0x03, 0x1c, 0x3e, 0xcd, 0xd8, 0x22, 0xbe, 0x46, 0x9c, 0x0a, 0xbe,
  0x41, 0x74, 0x14, 0x3d, 0x49, 0x17, 0x59, 0xbd, 0x01, 0xc2, 0x65, 0x3e,
  0x9f, 0xb0, 0xe3, 0xbd, 0x64, 0x4e, 0x10, 0xbe, 0x2b, 0x01, 0xf4, 0xbc,
  0x09, 0x0c, 0x89, 0x3e, 0x70, 0xc8, 0xed, 0x3e, 0x25, 0x65, 0x9a, 0xbd,
  0x0b, 0xdb, 0x9a, 0xbd, 0x91, 0xf6, 0xb1, 0xbe, 0x09, 0xdf, 0xec, 0xbd,
  0xef, 0x97, 0x9a, 0x3e, 0x82, 0x1a, 0x1d, 0x3d, 0xf4, 0xb2, 0xae, 0xbd,
  0x81, 0x3f, 0xe8, 0x3d, 0x45, 0x33, 0xd5, 0xbd, 0x76, 0xd9, 0x16, 0xbf,
  0xeb, 0xa4, 0xd5, 0xbd, 0xd9, 0xb3, 0xab, 0xbd, 0x8e, 0xa1, 0x9f, 0xbd,
  0x09, 0x39, 0xe7, 0xbe, 0xd0, 0x9a, 0xa6, 0xbd, 0x81, 0xe3, 0xd5, 0xbe,
  0x0e, 0x4d, 0x50, 0xbd, 0xa7, 0x2b, 0xf2, 0xbe, 0x0e, 0x6b, 0xf0, 0x3d,
  0x37, 0x00, 0x29, 0xbe, 0x59, 0xad, 0xde, 0x3e, 0x07, 0x15, 0xc2, 0xbd,
  0x15, 0xa9, 0x6c, 0x3e, 0x3d, 0x72, 0x0c, 0xbe, 0xa0, 0xf4, 0x1f, 0xbe,
  0x04, 0x62, 0xca, 0x3d, 0x90, 0x27, 0x9c, 0xbe, 0xb9, 0x1c, 0x10, 0xbd,
  0x85, 0x30, 0x27, 0xbe, 0x81, 0x86, 0x71, 0x3e, 0x54, 0xff, 0xb6, 0x3d,
  0x17, 0x17, 0x35, 0xbd, 0xc1, 0x00, 0x06, 0xbe, 0xa2, 0x77, 0x96, 0xbd,
  0xf4, 0xa1, 0xa0, 0xbe, 0x84, 0xd0, 0xf0, 0xbc, 0x8a, 0xdd, 0xa4, 0xbd,
  0xa0, 0x2b, 0x7d, 0x3d, 0x35, 0x3f, 0x23, 0xbe, 0xa6, 0xa0, 0xb9, 0xbd,
  0x0b, 0xb7, 0xde, 0xbd, 0x9d, 0x2b, 0xb0, 0xbc, 0xb5, 0x78, 0x77, 0xbe,
  0x04, 0x38, 0xbb, 0x3a, 0x82, 0xcd, 0x29, 0xbe, 0xe8, 0x65, 0xfe, 0x3c,
  0xb2, 0xd2, 0x91, 0xbe, 0x90, 0x7a, 0x6a, 0xbe, 0x06, 0x4e, 0xb2, 0x3c,
  0x8a, 0xcb, 0x9d, 0x3d, 0xab, 0xa5, 0x17, 0xbe, 0xe2, 0x88, 0x7f, 0x3e,
  0x21, 0x78, 0xc6, 0xbe, 0xcd, 0xc5, 0xdf, 0xbc, 0x95, 0x08, 0x8e, 0xbe,
  0xf0, 0xdf, 0xbf, 0xbd, 0x83, 0x83, 0xdf, 0xbd, 0x61, 0x49, 0x93, 0xbd,
  0xf4, 0x8d, 0x41, 0x3e, 0x3a, 0x7d, 0x18, 0x3d, 0xd0, 0x7b, 0x4d, 0x3e,
  0x88, 0x91, 0x5a, 0xbd, 0x4d, 0xa8, 0x84, 0xbe, 0xac, 0x34, 0xbe, 0x3e,
  0x9f, 0x32, 0x23, 0xbd, 0x86, 0x1d, 0x60, 0x3c, 0x55, 0x71, 0x63, 0xbe,
  0xc0, 0xbc, 0x09, 0xbe, 0x86, 0x60, 0x5a, 0xbc, 0x18, 0xb1, 0xc6, 0x3e,
  0x85, 0xcc, 0x8f, 0x3e, 0xe9, 0x47, 0x83, 0x3c, 0x40, 0x75, 0xde, 0xbd,
  0x18, 0xdc, 0xb4, 0xbe, 0x5d, 0x37, 0x43, 0xbe, 0xf9, 0x57, 0x1f, 0xbd,
  0x82, 0x6b, 0x19, 0xbe, 0x73, 0xb8, 0xa0, 0xbe, 0x3d, 0x82, 0x1c, 0xbe,
  0x3c, 0x4e, 0xc3, 0xbe, 0xbe, 0x29, 0xee, 0xbd, 0x9e, 0x84, 0xad, 0xbe,
  0xd7, 0xbe, 0xb3, 0x3e, 0xc6, 0xa3, 0x46, 0xbf, 0x8c, 0x0b, 0xfc, 0xbe,
  0xac, 0x70, 0x9e, 0xbd, 0x6b, 0xbc, 0x46, 0xbe, 0x92, 0xeb, 0x8e, 0xbb,
  0xfc, 0x59, 0x36, 0xbf, 0x2e, 0x1a, 0x96, 0x3e, 0x24, 0x78, 0x4d, 0xbe,
  0xc5, 0x48, 0x0b, 0xbf, 0xd0, 0xb9, 0x7f, 0xbe, 0x67, 0xe4, 0x54, 0x3d,
  0x5a, 0xc2, 0x22, 0xbc, 0x0d, 0x82, 0x70, 0xbd, 0xa1, 0x75, 0xf6, 0xbe,
  0xc4, 0x42, 0x10, 0xbe, 0xd9, 0xa7, 0xe6, 0xbd, 0xbb, 0x8e, 0x12, 0xbe,
  0x81, 0x75, 0x3c, 0xbe, 0x81, 0xf5, 0xd3, 0xbd, 0xc8, 0x66, 0x4a, 0xbe,
  0x13, 0xed, 0xdf, 0xbd, 0x6e, 0xcc, 0x65, 0x3e, 0x6e, 0x49, 0x10, 0xbe,
  0xbf, 0xd1, 0xa2, 0x3d, 0x54, 0x51, 0x3e, 0xbe, 0x65, 0x62, 0x81, 0x3e,
  0xf7, 0x6b, 0x90, 0xbd, 0x10, 0x41, 0x58, 0x3e, 0x92, 0x37, 0x9a, 0xbb,
  0x67, 0x07, 0x07, 0x3e, 0xcc, 0x92, 0x4b, 0x3e, 0xde, 0xaa, 0xf4, 0xbd,
  0x78, 0xe2, 0x56, 0xbf, 0xff, 0x4e, 0x98, 0xbe, 0xf2, 0x3c, 0x84, 0xbe,
  0x34, 0x65, 0x36, 0xbe, 0x07, 0x61, 0x96, 0xbe, 0x8a, 0xc1, 0x2b, 0xbf,
  0x54, 0xc6, 0xe2, 0x3e, 0x98, 0x55, 0x87, 0x3e, 0xe3, 0xfd, 0xf8, 0xbe,
  0xb5, 0x4b, 0x15, 0xbd, 0x20, 0xc3, 0x83, 0x3c, 0x37, 0x9c, 0xe7, 0x3c,
  0xd1, 0xf4, 0x98, 0x3d, 0xba, 0x8a, 0xc2, 0xbe, 0xee, 0x27, 0xab, 0xbe,
  0xdc, 0xa5, 0x23, 0xbd, 0x5e, 0x5c, 0xc8, 0xbe, 0x7b, 0x99, 0x8a, 0xbc,
  0xa9, 0x50, 0x8e, 0x3d, 0x02, 0x4b, 0x11, 0x3d, 0xbb, 0x6b, 0x8f, 0x3d,
  0x3f, 0x92, 0x0c, 0x3a, 0x21, 0xd8, 0x6f, 0x3b, 0x25, 0xc3, 0xe6, 0xbd,
  0xb8, 0xd2, 0x89, 0xbe, 0x0c, 0xbe, 0x19, 0xbd, 0x8d, 0x0d, 0xff, 0xbc,
  0x03, 0xfb, 0x5b, 0x3d, 0x28, 0x9b, 0xbf, 0x3c, 0xc3, 0xc7, 0xbd, 0x3b,
  0xdf, 0x3e, 0xec, 0xbd, 0x52, 0x2d, 0x85, 0xbd, 0x5f, 0x36, 0x83, 0xbe,
  0x4c, 0x30, 0xe5, 0xbd, 0x69, 0x02, 0xba, 0xbd, 0x1f, 0xac, 0x76, 0xbe,
  0x3f, 0x1a, 0x3b, 0xbe, 0x9c, 0xd5, 0x34, 0xbe, 0x4d, 0x09, 0x09, 0xbd,
  0x8d, 0xe9, 0x26, 0xbe, 0xb2, 0x9a, 0x0c, 0xbe, 0x67, 0x06, 0x56, 0x3d,
  0xcb, 0x23, 0x6a, 0xbd, 0x82, 0xca, 0x1b, 0x3e, 0xb0, 0xc2, 0x05, 0x3e,
  0xd2, 0x47, 0x77, 0x3d, 0x3a, 0xb0, 0x50, 0xbd, 0x02, 0xe7, 0x88, 0xbd,
  0x6a, 0x06, 0x12, 0x3e, 0x96, 0x5f, 0xda, 0x3d, 0x72, 0xcc, 0x2a, 0xbe,
  0xe9, 0x23, 0x77, 0xba, 0xd1, 0x5b, 0x94, 0x3c, 0x44, 0x8d, 0x1e, 0x3e,
  0xbc, 0x89, 0x06, 0xbe, 0x89, 0x5b, 0xa8, 0x3e, 0x30, 0x29, 0x30, 0x3e,
  0x3c, 0xc9, 0x96, 0x3e, 0x44, 0x32, 0xff, 0x3d, 0x78, 0x5e, 0x90, 0x3c,
  0x6d, 0xb7, 0x75, 0x3d, 0x46, 0x7c, 0x70, 0x3e, 0x80, 0x13, 0x80, 0xbd,
  0xe9, 0x97, 0x24, 0x3e, 0x4d, 0xda, 0xf9, 0xbd, 0x8a, 0x88, 0x6d, 0x3d,
  0x7b, 0xce, 0x00, 0x3c, 0xb5, 0x11, 0xd4, 0x3c, 0x6b, 0x65, 0x83, 0x3d,
  0x28, 0x3c, 0x92, 0xbd, 0x4b, 0xcd, 0x57, 0xbe, 0x35, 0x71, 0x8f, 0x3d,
  0xb4, 0x24, 0x38, 0xbe, 0xa4, 0xab, 0x21, 0xbe, 0x94, 0x51, 0x04, 0x3e,
  0x92, 0xac, 0x30, 0xbe, 0x73, 0xbb, 0x59, 0xbd, 0xe1, 0xd0, 0x82, 0xbe,
  0x34, 0xcc, 0x82, 0x3e, 0x9e, 0xaa, 0xe1, 0x3b, 0x8e, 0x3a, 0xf3, 0xbd,
  0x8a, 0x0b, 0x3e, 0xbd, 0x70, 0xc7, 0xe6, 0xba, 0x67, 0xad, 0x1f, 0x3e,
  0x6d, 0x05, 0x36, 0xbd, 0x91, 0xdc, 0x9c, 0xbc, 0xaa, 0x11, 0x9b, 0xbc,
  0xfa, 0x51, 0x6f, 0xbd, 0x04, 0x04, 0x0e, 0x3e, 0x53, 0x7e, 0x5f, 0x3e,
  0x4f, 0x18, 0x37, 0x3d, 0x0d, 0x3b, 0xde, 0xbc, 0x2d, 0x2b, 0x89, 0x3d,
  0xef, 0x55, 0x27, 0x3e, 0x6f, 0x9b, 0x10, 0x3c, 0x1d, 0xfc, 0x6c, 0xbe,
  0xe9, 0x33, 0x12, 0xbf, 0x57, 0x1c, 0x00, 0xbe, 0x90, 0xd9, 0x41, 0xbe,
  0xf5, 0xa1, 0xb5, 0xbe, 0xab, 0xda, 0x62, 0xbe, 0x32, 0x70, 0x1b, 0xbf,
  0x86, 0xa8, 0x70, 0xbe, 0xec, 0x95, 0x2b, 0x3d, 0xca, 0x6a, 0x93, 0xbf,
  0xaa, 0x55, 0x3e, 0xbf, 0x21, 0x0b, 0x29, 0x3e, 0x6c, 0x8f, 0x29, 0xbe,
  0x36, 0xa2, 0x27, 0x3e, 0xac, 0x23, 0x7d, 0xbf, 0xc1, 0xe0, 0xac, 0x3c,
  0xe5, 0xcc, 0xb3, 0x3d, 0xfd, 0xb3, 0x6a, 0xbe, 0x4f, 0x2f, 0xec, 0xbd,
  0x80, 0x6c, 0x81, 0x3c, 0x8e, 0xaf, 0xd0, 0xbd, 0x02, 0xf5, 0x99, 0xbb,
  0xb1, 0xc0, 0x7c, 0x3d, 0xad, 0x16, 0x4d, 0xbc, 0x41, 0x6b, 0x93, 0x3d,
  0x62, 0x1d, 0xca, 0xbe, 0x2e, 0xca, 0x3b, 0x3e, 0xab, 0xae, 0x5a, 0xbd,
  0x54, 0x32, 0x85, 0x3e, 0xb4, 0x33, 0x11, 0x3e, 0xac, 0xb8, 0x84, 0xbd,
  0xe4, 0xb6, 0xe5, 0x3d, 0x1e, 0x06, 0xa1, 0xbe, 0x64, 0x9b, 0x7d, 0x3d,
  0xcc, 0x61, 0x98, 0x3a, 0x48, 0xbe, 0xa8, 0xbe, 0xf6, 0xfa, 0x8d, 0x3e,
  0xae, 0x88, 0xca, 0xbd, 0x3c, 0x52, 0x60, 0x3d, 0xc2, 0x8c, 0x89, 0xbe,
  0x64, 0x4f, 0x3a, 0xbe, 0x23, 0xb6, 0x06, 0x3e, 0x63, 0xa9, 0xd2, 0xbc,
  0xbe, 0xfb, 0xd7, 0xbe, 0x18, 0x4e, 0xfe, 0xbd, 0xc7, 0x1a, 0x8c, 0xbe,
  0x59, 0x8f, 0xa5, 0x3d, 0x2e, 0x61, 0x85, 0xbe, 0x63, 0x54, 0x0d, 0xbe,
  0xef, 0xa7, 0x83, 0x3c, 0xc2, 0x06, 0x21, 0x3e, 0xbc, 0xa5, 0xf5, 0xbd,
  0xa9, 0xfc, 0x98, 0xbd, 0x3c, 0xe3, 0x0a, 0x3e, 0x78, 0x07, 0xa3, 0x3d,
  0x5f, 0x34, 0x5d, 0x3d, 0x12, 0x59, 0xf3, 0x3d, 0x6a, 0xa9, 0xc5, 0xbd,
  0x5a, 0xa8, 0x2a, 0x3d, 0x35, 0xee, 0x0a, 0xbe, 0x46, 0xfd, 0xdf, 0xbc,
  0x0e, 0xe6, 0x7b, 0x3e, 0xcd, 0x02, 0x9b, 0x3d, 0x8f, 0xf3, 0x43, 0x3d,
  0x8f, 0x4b, 0xd0, 0xbe, 0x18, 0xf6, 0x03, 0x3d, 0xc5, 0x5b, 0x58, 0x3e,
  0xfe, 0x18, 0x83, 0xbe, 0x5d, 0x37, 0x39, 0x3c, 0xf2, 0x25, 0xff, 0xbe,
  0xdf, 0x3d, 0x7f, 0xbe, 0xcd, 0x2e, 0x29, 0xbe, 0xe1, 0x96, 0xff, 0xbc,
  0xee, 0x2b, 0x07, 0xbf, 0xf1, 0x80, 0x6b, 0xbe, 0xe2, 0xd9, 0xbc, 0x3d,
  0xbc, 0xde, 0x82, 0xbe, 0x30, 0xf3, 0x94, 0x3b, 0x0c, 0x16, 0x3b, 0xbf,
  0x25, 0xd4, 0x83, 0xbd, 0x3e, 0x43, 0xc4, 0xbd, 0x14, 0xa1, 0x01, 0x3e,
  0x09, 0xf1, 0x6e, 0xbe, 0x54, 0xba, 0x8b, 0xbd, 0xb9, 0x4c, 0x47, 0x3d,
  0x44, 0x63, 0x0e, 0xbe, 0x98, 0xa3, 0x98, 0x3d, 0x6b, 0xc6, 0x0d, 0xbd,
  0x4b, 0x28, 0x9a, 0x3e, 0x68, 0x9a, 0x07, 0x39, 0x37, 0xa8, 0xf8, 0xbd,
  0xd6, 0xb8, 0x0b, 0x3e, 0x31, 0x85, 0xbf, 0xbc, 0xf1, 0xd4, 0x34, 0x3e,
  0x5c, 0xe6, 0xcd, 0xbd, 0x7a, 0x75, 0x94, 0x3e, 0x59, 0x0f, 0xb4, 0xbe,
  0xf8, 0xcc, 0x92, 0xbd, 0xc4, 0x27, 0xe5, 0xbd, 0x36, 0x62, 0x3c, 0xbe,
  0xb8, 0xee, 0x8c, 0xbe, 0x89, 0x02, 0x1e, 0xbe, 0xf0, 0x08, 0xa0, 0xbe,
  0x74, 0x6b, 0x03, 0xbc, 0x41, 0xfc, 0xb5, 0xbe, 0x16, 0xb7, 0x82, 0x3c,
  0x5f, 0xd3, 0x19, 0x3d, 0x20, 0x2d, 0x0a, 0xbe, 0x91, 0x01, 0x0b, 0x3c,
  0x15, 0x87, 0x06, 0x3e, 0xe9, 0x98, 0x59, 0x3e, 0xab, 0xd2, 0x35, 0xbc,
  0x80, 0x37, 0x2a, 0x3e, 0xdb, 0xb1, 0xac, 0x3c, 0x4e, 0xeb, 0xd2, 0x3c,
  0xf5, 0x45, 0x84, 0xbe, 0x96, 0xf4, 0xf7, 0x3d, 0x3f, 0x85, 0x93, 0xbd,
  0xbd, 0x74, 0xb3, 0x3d, 0xc4, 0x2f, 0x37, 0xbd, 0xa6, 0x52, 0x75, 0x3e,
  0x3e, 0x59, 0x24, 0x3b, 0xb0, 0x5a, 0x47, 0xbd, 0x96, 0x34, 0xbc, 0xbd,
  0xea, 0x6c, 0xf1, 0xbc, 0xe8, 0x38, 0x3e, 0xbe, 0x1f, 0x8f, 0xa6, 0x3c,
  0xef, 0x7e, 0x3f, 0xbe, 0x26, 0xde, 0xff, 0xff, 0x10, 0x00, 0x00, 0x00,
  0x0a, 0x00, 0x00, 0x00, 0x1c, 0x00, 0x00, 0x00, 0x38, 0x00, 0x00, 0x00,
  0x04, 0x00, 0x00, 0x00, 0x10, 0x00, 0x00, 0x00, 0x04, 0x00, 0x00, 0x00,
  0x01, 0x00, 0x00, 0x00, 0x08, 0x00, 0x00, 0x00, 0x1a, 0x00, 0x00, 0x00,
  0x73, 0x65, 0x71, 0x75, 0x65, 0x6e, 0x74, 0x69, 0x61, 0x6c, 0x2f, 0x63,
  0x6f, 0x6e, 0x76, 0x32, 0x64, 0x5f, 0x31, 0x2f, 0x43, 0x6f, 0x6e, 0x76,
  0x32, 0x44, 0x00, 0x00, 0x9c, 0xdd, 0xff, 0xff, 0xa6, 0xde, 0xff, 0xff,
  0x04, 0x00, 0x00, 0x00, 0x80, 0x01, 0x00, 0x00, 0x7f, 0x51, 0xa7, 0xbe,
  0x03, 0x03, 0x51, 0xbe, 0xc1, 0x6a, 0x18, 0x3e, 0xfd, 0xcb, 0x3e, 0x3e,
  0x70, 0x72, 0x3a, 0x3e, 0xb7, 0xd8, 0xfb, 0x3d, 0x94, 0x30, 0xbe, 0x3d,
  0x7d, 0xae, 0x3f, 0x3e, 0x1b, 0xe5, 0xeb, 0xbd, 0xec, 0xa9, 0xd4, 0x3d,
  0xae, 0xf5, 0x2b, 0x3b, 0x82, 0x4b, 0x92, 0xbc, 0x30, 0x6c, 0xcc, 0xbe,
  0xd7, 0xe8, 0x81, 0x3e, 0x60, 0x2d, 0x77, 0xbe, 0xc1, 0x6c, 0x8f, 0x3c,
  0x62, 0x99, 0x8e, 0xbe, 0x8d, 0x59, 0x7e, 0xbe, 0x25, 0x12, 0x3c, 0x3d,
  0x76, 0x74, 0xe0, 0x3d, 0xad, 0x6e, 0x00, 0x3c, 0x7d, 0xa6, 0x04, 0x3e,
  0xc8, 0xff, 0xf2, 0xbd, 0x48, 0xbd, 0x6e, 0x3e, 0x5d, 0xc4, 0x7d, 0xbe,
  0x3b, 0xf7, 0x54, 0x3e, 0xe4, 0x91, 0x8d, 0xbd, 0x31, 0x78, 0x4b, 0x3d,
  0xfa, 0x21, 0x32, 0x3e, 0x5b, 0x0f, 0x8d, 0x3e, 0x31, 0xad, 0x29, 0x3e,
  0x7d, 0x88, 0x0a, 0xbe, 0x8a, 0x78, 0x5f, 0x3e, 0xcc, 0x18, 0xec, 0xbc,
  0xda, 0xc1, 0x63, 0xbe, 0x99, 0x21, 0xd3, 0xbe, 0x29, 0x46, 0x58, 0x3e,
  0xaa, 0x48, 0xd6, 0x3d, 0x18, 0x15, 0xf1, 0xbd, 0xc1, 0x45, 0x92, 0x3e,
  0xbf, 0xc1, 0x21, 0x3e, 0x61, 0x1b, 0xff, 0x3d, 0x5d, 0x30, 0x1a, 0xbc,
  0xad, 0x17, 0xdb, 0x3d, 0x25, 0x58, 0x3f, 0x3d, 0x80, 0xab, 0x67, 0xbe,
  0x88, 0xc0, 0xb4, 0xbd, 0xab, 0x67, 0x58, 0xbd, 0xc1, 0x8d, 0x91, 0xbd,
  0x03, 0x42, 0x98, 0x3e, 0xe5, 0x2b, 0x5d, 0x3e, 0x18, 0xd4, 0xc7, 0x3d,
  0x6c, 0xa5, 0x0e, 0xbe, 0x04, 0xa7, 0x44, 0x3e, 0xbb, 0x1d, 0x22, 0xbe,
  0xcf, 0x9e, 0x42, 0xbe, 0xc9, 0xdc, 0x3a, 0xbe, 0x20, 0xab, 0xdd, 0x3d,
  0x35, 0xda, 0x95, 0x3c, 0x54, 0x3f, 0x28, 0xbe, 0x86, 0xd1, 0xe1, 0x3d,
  0x35, 0xed, 0xec, 0xbc, 0x4d, 0x98, 0x54, 0xbc, 0xd1, 0x43, 0x12, 0x3e,
  0xb9, 0xab, 0x94, 0x3e, 0x21, 0x2a, 0x5f, 0x3e, 0x12, 0x77, 0xf8, 0x3b,
  0x71, 0xdf, 0x0b, 0xbd, 0xfc, 0xdc, 0xdd, 0xbd, 0x8a, 0x06, 0x80, 0xbe,
  0x0a, 0xce, 0xfe, 0xbd, 0x85, 0x95, 0x58, 0xbd, 0x7e, 0x33, 0x67, 0xbd,
  0x80, 0x9f, 0x72, 0x3e, 0xfc, 0x78, 0x5a, 0xbe, 0x6f, 0xa8, 0x96, 0xbe,
  0xcc, 0xd5, 0x02, 0xbd, 0xeb, 0x95, 0x55, 0xbe, 0x06, 0x33, 0xa4, 0x3d,
  0xd5, 0xd6, 0xf4, 0xbd, 0xa3, 0x51, 0x84, 0x3c, 0xe2, 0xd6, 0x06, 0x3e,
  0x5c, 0x54, 0xfa, 0xbd, 0xc6, 0x2e, 0xa1, 0x3e, 0x04, 0xd9, 0x8d, 0xbe,
  0xcc, 0x76, 0x8f, 0xbe, 0x03, 0x7d, 0x09, 0x3e, 0xc5, 0x23, 0x3b, 0x3e,
  0x81, 0x14, 0xb2, 0x3e, 0xdb, 0xfb, 0x2e, 0xbe, 0x9c, 0xe1, 0xb3, 0x3d,
  0xc9, 0x26, 0xec, 0x3d, 0xe4, 0x21, 0xc8, 0xbd, 0x00, 0x9a, 0xeb, 0x3d,
  0xc7, 0xf4, 0xbe, 0xbc, 0xf2, 0x0e, 0x0e, 0xbb, 0xfe, 0xdf, 0xff, 0xff,
  0x10, 0x00, 0x00, 0x00, 0x09, 0x00, 0x00, 0x00, 0x1c, 0x00, 0x00, 0x00,
  0x38, 0x00, 0x00, 0x00, 0x04, 0x00, 0x00, 0x00, 0x08, 0x00, 0x00, 0x00,
  0x04, 0x00, 0x00, 0x00, 0x03, 0x00, 0x00, 0x00, 0x01, 0x00, 0x00, 0x00,
  0x18, 0x00, 0x00, 0x00, 0x73, 0x65, 0x71, 0x75, 0x65, 0x6e, 0x74, 0x69,
  0x61, 0x6c, 0x2f, 0x63, 0x6f, 0x6e, 0x76, 0x32, 0x64, 0x2f, 0x43, 0x6f,
  0x6e, 0x76, 0x32, 0x44, 0x00, 0x00, 0x00, 0x00, 0x74, 0xdf, 0xff, 0xff,
  0x7e, 0xe0, 0xff, 0xff, 0x04, 0x00, 0x00, 0x00, 0xc0, 0x00, 0x00, 0x00,
  0x17, 0x45, 0xa1, 0x3d, 0xc1, 0x1f, 0x01, 0x3f, 0x39, 0x6e, 0x3f, 0xbe,
  0x3a, 0xda, 0xd1, 0x3c, 0x4b, 0xa1, 0xbb, 0x3d, 0xa4, 0xff, 0xe5, 0x3e,
  0xd2, 0x50, 0xc1, 0x3d, 0xfd, 0x42, 0x7b, 0x3e, 0x35, 0x55, 0x80, 0xbd,
  0xaf, 0xd3, 0x9c, 0xbd, 0x6a, 0x13, 0x83, 0x3e, 0x5a, 0x0a, 0x0c, 0xbd,
  0x28, 0x53, 0xdd, 0xbd, 0x8d, 0x82, 0xf8, 0xba, 0xd4, 0x4f, 0xbf, 0x3e,
  0x3a, 0x78, 0x74, 0xbe, 0xb8, 0x39, 0x85, 0x3e, 0x3a, 0x24, 0xf3, 0x3e,
  0x2d, 0x07, 0xaa, 0x3e, 0xdf, 0x67, 0x58, 0x3d, 0xa4, 0x17, 0x1e, 0x3e,
  0x9f, 0xe2, 0xfd, 0x3e, 0x32, 0xea, 0x3a, 0x3e, 0x5c, 0x02, 0x2c, 0x3e,
  0x99, 0x10, 0xa0, 0xbc, 0x00, 0x72, 0xc5, 0x3e, 0x51, 0xfe, 0x99, 0x3e,
  0xfa, 0x34, 0xa4, 0xbd, 0x1d, 0x5d, 0x08, 0xbe, 0xb6, 0x74, 0x66, 0xbe,
  0xb9, 0xc7, 0xc7, 0x3e, 0xdc, 0x2f, 0x5c, 0xbe, 0xce, 0xbe, 0x83, 0x3e,
  0xc5, 0xe0, 0xc5, 0x3e, 0xd3, 0xbf, 0x52, 0xbe, 0x96, 0x00, 0xeb, 0x3c,
  0x97, 0xcc, 0xbc, 0x3d, 0xb5, 0x00, 0xf2, 0x3e, 0xac, 0x25, 0xd5, 0xbe,
  0x7e, 0xa3, 0xc4, 0xbd, 0x5b, 0x58, 0x74, 0xbd, 0x9f, 0xa9, 0x22, 0xbe,
  0x61, 0x2f, 0xa3, 0x3e, 0xd3, 0xe4, 0x03, 0xbf, 0xd3, 0x06, 0x42, 0xbd,
  0x5b, 0x93, 0x48, 0xbf, 0xe9, 0x6f, 0xaf, 0x3e, 0xde, 0x6a, 0xf5, 0xbd,
  0x16, 0xe1, 0xff, 0xff, 0x10, 0x00, 0x00, 0x00, 0x08, 0x00, 0x00, 0x00,
  0x14, 0x00, 0x00, 0x00, 0x30, 0x00, 0x00, 0x00, 0x02, 0x00, 0x00, 0x00,
  0x03, 0x00, 0x00, 0x00, 0x10, 0x00, 0x00, 0x00, 0x19, 0x00, 0x00, 0x00,
  0x73, 0x65, 0x71, 0x75, 0x65, 0x6e, 0x74, 0x69, 0x61, 0x6c, 0x2f, 0x64,
  0x65, 0x6e, 0x73, 0x65, 0x5f, 0x31, 0x2f, 0x4d, 0x61, 0x74, 0x4d, 0x75,
  0x6c, 0x00, 0x00, 0x00, 0x84, 0xe0, 0xff, 0xff, 0x8e, 0xe1, 0xff, 0xff,
  0x04, 0x00, 0x00, 0x00, 0x00, 0x1c, 0x00, 0x00, 0xef, 0x8e, 0x2a, 0xbe,
  0x84, 0x4e, 0x0b, 0x3e, 0x67, 0x27, 0x6c, 0x3e, 0x05, 0xb4, 0x86, 0xbd,
  0xc6, 0xb1, 0x11, 0x3e, 0x17, 0x13, 0x6b, 0xbd, 0x05, 0x2b, 0x8a, 0x3e,
  0x1b, 0x9e, 0x45, 0x3d, 0x59, 0xbc, 0xfb, 0x3d, 0xb6, 0x54, 0xcc, 0x3e,
  0xb0, 0x23, 0xd4, 0xbd, 0x67, 0x4a, 0x8e, 0x3d, 0x5a, 0x84, 0x59, 0x3e,
  0xee, 0xcf, 0xa3, 0xbe, 0x0d, 0x43, 0x0f, 0x3e, 0x35, 0xa3, 0x9e, 0xbe,
  0x96, 0x2e, 0x51, 0xbd, 0xf5, 0x91, 0x50, 0x3e, 0xae, 0x00, 0x4f, 0x3e,
  0x08, 0x60, 0x77, 0xbd, 0xa3, 0x9e, 0x6b, 0x3d, 0x66, 0xbe, 0xd1, 0x3d,
  0x3c, 0xf3, 0x27, 0xbe, 0x0a, 0xe8, 0x9f, 0x3d, 0xa1, 0xe4, 0xb8, 0xbd,
  0xb8, 0xd1, 0xbe, 0x3c, 0x94, 0xc9, 0x39, 0x3d, 0x0c, 0x25, 0x01, 0x3d,
  0x4f, 0x02, 0xe3, 0x3d, 0xaf, 0x3e, 0x70, 0xbd, 0xd3, 0x1a, 0xed, 0x3b,
  0xbe, 0x25, 0x9b, 0x3d, 0x90, 0x51, 0x51, 0xbd, 0xf9, 0x81, 0x39, 0xbd,
  0x46, 0xf8, 0x5a, 0xbd, 0x08, 0x18, 0x6e, 0xbd, 0x8a, 0xfb, 0x95, 0x3d,
  0xe9, 0xd6, 0xa7, 0xbd, 0xb5, 0x73, 0xa3, 0xbe, 0xdb, 0xd0, 0xcc, 0xbd,
  0x46, 0xf9, 0xca, 0x3d, 0x52, 0x81, 0x2d, 0xbe, 0x70, 0x37, 0xe5, 0xbd,
  0xe2, 0x5b, 0xa3, 0xbc, 0x6a, 0x4a, 0xcd, 0xbd, 0x57, 0xaa, 0xd2, 0x3d,
  0x73, 0x0a, 0x2c, 0xbe, 0xb2, 0xeb, 0x01, 0xbe, 0x9b, 0x9e, 0xb9, 0xbd,
  0xed, 0xc1, 0xae, 0xbd, 0xdc, 0xf0, 0x8b, 0x3c, 0x06, 0x19, 0xcd, 0xba,
  0x1c, 0xfa, 0xc2, 0x3b, 0xc4, 0x11, 0xf0, 0xbd, 0x78, 0x5d, 0x08, 0xbc,
  0x02, 0x4c, 0x19, 0x3e, 0x63, 0x36, 0x79, 0x3d, 0xbd, 0x87, 0x4c, 0x3d,
  0xd7, 0x61, 0x08, 0xbe, 0x51, 0x25, 0x93, 0xbc, 0xdf, 0x06, 0x0d, 0x3d,
  0x47, 0xf4, 0x90, 0x3c, 0x18, 0xad, 0xb8, 0xbc, 0x4e, 0x1d, 0x92, 0xbd,
  0x82, 0x6a, 0x3a, 0x3e, 0xa9, 0x5a, 0xac, 0x3d, 0x57, 0x17, 0x52, 0x3e,
  0xbf, 0x0a, 0x20, 0xbd, 0x15, 0x76, 0xae, 0x3c, 0x75, 0x40, 0x20, 0x3d,
  0x33, 0xf6, 0x4d, 0x3d, 0xbf, 0x66, 0xf1, 0x3d, 0x63, 0x11, 0x90, 0x3c,
  0x12, 0x27, 0x01, 0xbe, 0x9f, 0xd1, 0x96, 0xbe, 0xaa, 0x18, 0x4c, 0xbd,
  0x39, 0x63, 0x12, 0x3e, 0xa1, 0x5b, 0x4e, 0xbd, 0x7f, 0xde, 0x20, 0x3d,
  0xfa, 0xff, 0x61, 0xbe, 0x36, 0xe0, 0xca, 0xbd, 0xb2, 0x8e, 0xdb, 0xbd,
  0x26, 0xe7, 0x0d, 0xbe, 0x9a, 0x06, 0x5f, 0xbd, 0x1e, 0xf2, 0x59, 0xbd,
  0x55, 0x0c, 0x1a, 0xbe, 0xe4, 0xa5, 0x43, 0x3c, 0x43, 0x36, 0x7f, 0xbd,
  0xcd, 0x3f, 0xc4, 0x3c, 0x9e, 0xe4, 0x41, 0xba, 0x10, 0x74, 0x26, 0xbe,
  0x73, 0x6c, 0x41, 0xbd, 0x4a, 0x66, 0x0c, 0x3d, 0x52, 0x14, 0x69, 0xbd,
  0x18, 0xc8, 0x7b, 0xbc, 0x2f, 0x08, 0xfd, 0xbd, 0x1d, 0xe9, 0x14, 0x3c,
  0xc0, 0xd5, 0x38, 0x3d, 0x9c, 0xfa, 0x05, 0xbe, 0xca, 0xe8, 0x90, 0x3c,
  0xb7, 0x62, 0xb1, 0xbc, 0x94, 0xe6, 0x6c, 0xbd, 0x05, 0xa4, 0x24, 0xbe,
  0x2d, 0xe9, 0x4d, 0xbd, 0xc3, 0x0f, 0x39, 0xbe, 0x5c, 0x08, 0xac, 0xbd,
  0x0c, 0x49, 0x45, 0xbd, 0xa7, 0x94, 0x3c, 0xbc, 0xb0, 0x82, 0xe4, 0xbd,
  0xe3, 0x21, 0xb2, 0xbc, 0xca, 0x62, 0x15, 0xbd, 0x87, 0xe5, 0xf7, 0xbc,
  0xb1, 0xaf, 0xa0, 0xbd, 0x81, 0x14, 0x95, 0xbe, 0xcc, 0x02, 0x79, 0xbe,
  0x20, 0x29, 0xc3, 0xbd, 0x2d, 0x0b, 0xcf, 0xbe, 0xe8, 0xfd, 0x80, 0xbe,
  0x75, 0xdf, 0x9d, 0xbe, 0xb4, 0x3f, 0x6d, 0xbe, 0xc5, 0xbd, 0xa1, 0xbe,
  0x9e, 0x8f, 0x03, 0xbf, 0x5e, 0x20, 0x0d, 0x3e, 0x17, 0x6c, 0x1b, 0xbe,
  0xec, 0x1a, 0x03, 0xbf, 0xe3, 0x67, 0x4e, 0x3e, 0x96, 0xae, 0x92, 0xbe,
  0xc0, 0x82, 0x28, 0x3e, 0xb4, 0xb5, 0xa0, 0x3e, 0x49, 0xbe, 0x54, 0xbe,
  0x2e, 0x7d, 0xa5, 0xbd, 0x16, 0x46, 0x10, 0x3e, 0x8d, 0xda, 0xd1, 0xbe,
  0x20, 0x2b, 0x20, 0xbe, 0xef, 0x8c, 0x80, 0x3e, 0xd2, 0xa3, 0xd2, 0x3d,
  0xdc, 0x01, 0x38, 0xbe, 0x50, 0xf4, 0xa3, 0xbd, 0x14, 0x34, 0x05, 0xbe,
  0x08, 0xee, 0x38, 0xbc, 0x4b, 0xdc, 0xbc, 0xbe, 0xb3, 0xda, 0x5c, 0xbc,
  0x6d, 0xf7, 0x5b, 0x3e, 0xea, 0x85, 0xc5, 0x3e, 0x17, 0xd1, 0xe8, 0x3e,
  0x2f, 0x12, 0x06, 0x3e, 0x20, 0x7b, 0xdc, 0x3e, 0x2e, 0xfc, 0xa7, 0x3e,
  0xb5, 0x2c, 0x1a, 0xbe, 0xc0, 0x05, 0x0d, 0x3e, 0xbd, 0x80, 0x3c, 0x3e,
  0x71, 0xbe, 0xd2, 0xbd, 0x91, 0x68, 0x85, 0x3e, 0xfa, 0x33, 0xae, 0xbd,
  0xea, 0x9c, 0x84, 0x3e, 0x5e, 0x2c, 0x2c, 0x3e, 0x04, 0xc9, 0xda, 0xbd,
  0xfa, 0xbb, 0xfa, 0x3b, 0x69, 0x60, 0x40, 0x3e, 0xfe, 0xcb, 0x9b, 0x3e,
  0xd2, 0xe9, 0xc1, 0x3e, 0x56, 0x38, 0x51, 0x3e, 0x45, 0x38, 0xcc, 0x3e,
  0x1d, 0xd5, 0x9c, 0x3e, 0xac, 0xc5, 0xe7, 0xbd, 0xbc, 0xd3, 0xb4, 0x3e,
  0xa8, 0x6e, 0xb0, 0x3e, 0x56, 0x80, 0x78, 0x3e, 0x0f, 0x72, 0x71, 0xbd,
  0x0a, 0xbb, 0x41, 0xbd, 0x3f, 0xbd, 0x03, 0x3e, 0x71, 0xfb, 0x5f, 0x3e,
  0x67, 0xc4, 0x0c, 0x3c, 0x95, 0x11, 0x00, 0xbe, 0x7e, 0xf0, 0xbc, 0xbd,
  0x26, 0x71, 0x3d, 0x3e, 0x47, 0xda, 0x2c, 0xbe, 0x64, 0x00, 0x2c, 0x3e,
  0x2f, 0xa6, 0xb5, 0xbd, 0xfc, 0x05, 0x0b, 0x3e, 0x57, 0xe3, 0xa4, 0xbd,
  0xdd, 0x11, 0x7d, 0xbc, 0x7f, 0x56, 0xec, 0x3e, 0x5f, 0x65, 0x24, 0x3e,
  0xbc, 0xbf, 0x8e, 0xbd, 0xf7, 0xac, 0x84, 0xbe, 0x52, 0xe9, 0x80, 0x3d,
  0x4c, 0x76, 0x0f, 0xbd, 0x48, 0x0f, 0xe4, 0xbd, 0x8e, 0x8e, 0x73, 0x3d,
  0x77, 0xcc, 0xfa, 0xbe, 0xd3, 0xeb, 0x15, 0x3e, 0x8f, 0xb3, 0xfa, 0xbd,
  0xae, 0xac, 0x4d, 0xbe, 0x46, 0x82, 0x08, 0xbe, 0x46, 0xba, 0x52, 0xbd,
  0x74, 0xf6, 0x03, 0x3e, 0xbb, 0xfd, 0x8d, 0xbe, 0x4d, 0xa1, 0x20, 0x3e,
  0xe8, 0x19, 0x46, 0xbe, 0xe4, 0x48, 0xd8, 0xbd, 0xf2, 0x78, 0xa7, 0xbd,
  0x37, 0x18, 0x02, 0x3e, 0x11, 0x7a, 0xce, 0x3b, 0x4d, 0x56, 0x4d, 0xbe,
  0xe6, 0x76, 0x91, 0x3d, 0x0c, 0x5a, 0x28, 0xbe, 0x33, 0x0b, 0xb4, 0x3e,
  0xfe, 0x6d, 0x32, 0xbe, 0xc2, 0x1d, 0xda, 0xbd, 0x95, 0x10, 0x1a, 0xbe,
  0x1f, 0xa3, 0xed, 0xbc, 0x6d, 0x7d, 0x80, 0xbc, 0xaa, 0x0e, 0xed, 0x3b,
  0xc4, 0xc3, 0xd6, 0xbc, 0x4a, 0xd9, 0x76, 0xbd, 0x00, 0x5e, 0x1e, 0xbe,
  0xf6, 0x6b, 0xfd, 0x3c, 0x30, 0x68, 0x26, 0xbd, 0x26, 0x0c, 0xb8, 0xbc,
  0xb4, 0xac, 0xc9, 0x3d, 0x5e, 0xf6, 0xe6, 0x3b, 0x75, 0x54, 0xd1, 0xbe,
  0x67, 0x6c, 0x5f, 0x3e, 0xea, 0x73, 0x09, 0xbe, 0xb3, 0x2e, 0xe2, 0xbd,
  0xc7, 0xf4, 0x82, 0xbc, 0x4f, 0xd3, 0x79, 0xbe, 0x99, 0xad, 0xa7, 0x3c,
  0xff, 0x3b, 0x4a, 0xbd, 0xe7, 0x24, 0xbf, 0xbc, 0x0a, 0x95, 0x20, 0x3c,
  0xa2, 0xcd, 0x0e, 0xbe, 0x0f, 0x1f, 0xa2, 0xbc, 0x49, 0x40, 0xf4, 0xbd,
  0x3e, 0xc0, 0x5b, 0xbe, 0xd4, 0x7c, 0x52, 0xbe, 0xf6, 0xa5, 0xb0, 0xbd,
  0x59, 0x82, 0xa0, 0xbd, 0x4f, 0xcd, 0x89, 0x38, 0x2e, 0xbf, 0x01, 0x3e,
  0xed, 0xb8, 0xfd, 0xbd, 0xe3, 0xa2, 0xc3, 0x3c, 0x41, 0x7f, 0x3a, 0xbe,
  0x9f, 0x28, 0x77, 0xbe, 0xe7, 0xd1, 0x6f, 0xb8, 0x0a, 0xa0, 0xa1, 0xbd,
  0xda, 0x83, 0xb3, 0xbc, 0x80, 0xf0, 0xef, 0xbd, 0xd3, 0x7e, 0x69, 0xbd,
  0x24, 0xbd, 0x08, 0x3e, 0x7b, 0xa9, 0x81, 0xbb, 0xc3, 0x2a, 0x00, 0x3e,
  0x20, 0x5a, 0x52, 0xbd, 0x1d, 0x77, 0x4d, 0x3d, 0x05, 0xa2, 0xa7, 0x3d,
  0x36, 0x26, 0x5b, 0xbe, 0x60, 0x5f, 0x1d, 0x3d, 0x1a, 0x11, 0x5f, 0x3c,
  0xf3, 0x5a, 0x88, 0xbe, 0x27, 0xf0, 0x89, 0x3b, 0x63, 0xc5, 0x10, 0x3e,
  0x66, 0x47, 0xe8, 0x3d, 0xe1, 0x61, 0x1f, 0xbe, 0x2f, 0x09, 0x6b, 0xbe,
  0x90, 0x74, 0x49, 0xbe, 0xe5, 0x83, 0x25, 0xbe, 0x4e, 0x03, 0x99, 0xbd,
  0x02, 0xc0, 0x71, 0xbe, 0xb5, 0x0d, 0x97, 0xbe, 0x2e, 0xf1, 0x91, 0x3d,
  0xd1, 0xc4, 0x44, 0xbe, 0xca, 0xd1, 0x3e, 0x3e, 0xd6, 0x33, 0x47, 0xbd,
  0xfb, 0xb9, 0x9a, 0x3d, 0x8f, 0x18, 0x65, 0xbe, 0xc2, 0x77, 0x69, 0x3d,
  0xc6, 0x28, 0xec, 0xbc, 0x84, 0x90, 0x01, 0x3d, 0x1e, 0xfc, 0x77, 0xbe,
  0x50, 0x7a, 0x58, 0xbe, 0x0c, 0x6c, 0x0e, 0xbe, 0xd6, 0xca, 0xed, 0xbd,
  0xac, 0xa7, 0x24, 0xbe, 0xc7, 0x41, 0x0a, 0x3e, 0x9f, 0x17, 0x79, 0xbe,
  0x56, 0x96, 0xa3, 0x3c, 0xbd, 0x26, 0x3b, 0xbe, 0x1a, 0x88, 0x3d, 0x3e,
  0xc7, 0x4e, 0x35, 0xbe, 0xf1, 0x59, 0xc3, 0xbd, 0xc3, 0xf5, 0xe5, 0xbd,
  0xea, 0x96, 0x30, 0xbe, 0xef, 0x27, 0xfe, 0xbd, 0x72, 0x57, 0xe1, 0xbd,
  0x67, 0x5f, 0x2d, 0xbe, 0x3d, 0xb7, 0x8f, 0xbd, 0x0f, 0x1f, 0x18, 0x3d,
  0x33, 0x47, 0x88, 0xbd, 0x28, 0xf1, 0xdf, 0xbd, 0x1a, 0x58, 0x17, 0xbb,
  0x3d, 0x92, 0x25, 0xbe, 0x67, 0xa6, 0x07, 0xbd, 0xcb, 0xce, 0xe7, 0xbd,
  0x80, 0x4d, 0xec, 0xbc, 0xbf, 0x6d, 0xa9, 0x3d, 0x17, 0xac, 0x88, 0x3d,
  0xbf, 0xcb, 0x26, 0xbc, 0x89, 0x17, 0xda, 0xbd, 0x5e, 0x82, 0x4e, 0xbe,
  0x93, 0xcf, 0xa5, 0xbc, 0x23, 0x47, 0xdc, 0xbd, 0x15, 0xe1, 0x1e, 0xbd,
  0x36, 0x75, 0x2f, 0x3e, 0x65, 0x04, 0x86, 0xbc, 0xb2, 0x06, 0x45, 0xba,
  0x14, 0xe0, 0xb2, 0xbd, 0xda, 0x71, 0x34, 0xbe, 0x7f, 0xbb, 0x9d, 0x3d,
  0x2a, 0xd0, 0x29, 0x3d, 0x18, 0xc9, 0x1b, 0x3e, 0x8e, 0xd2, 0x0e, 0x3e,
  0xb0, 0x96, 0x09, 0x3d, 0xad, 0x18, 0x58, 0xbe, 0x01, 0xeb, 0x5f, 0xbe,
  0xfb, 0xe1, 0xc9, 0xbd, 0xc1, 0x5e, 0xfb, 0xbd, 0x52, 0xe3, 0x4e, 0x3c,
  0x84, 0xb8, 0x97, 0xbd, 0x4b, 0x5d, 0x22, 0x3e, 0x25, 0x17, 0xd7, 0xbd,
  0x18, 0x92, 0x5a, 0xbe, 0x5e, 0x09, 0xe4, 0xbc, 0xd3, 0x04, 0x1b, 0xbe,
  0x14, 0x40, 0xed, 0xbd, 0xae, 0x18, 0x65, 0xbd, 0x91, 0x8b, 0x33, 0x3e,
  0x7a, 0x2c, 0xa7, 0x3e, 0xf5, 0xc1, 0x3d, 0x3e, 0x99, 0xdf, 0x00, 0x3c,
  0xbf, 0x4e, 0x2a, 0xbe, 0x68, 0x53, 0x2d, 0x3e, 0xa8, 0xbe, 0x94, 0x3e,
  0xa9, 0xd9, 0x83, 0x3e, 0xae, 0x9d, 0xcf, 0xbd, 0x6c, 0x83, 0xbf, 0xbe,
  0xff, 0x27, 0xaa, 0xbc, 0x5b, 0xed, 0xa7, 0x3d, 0xb8, 0x21, 0x02, 0xbe,
  0xfa, 0x6e, 0x87, 0xbd, 0x4e, 0x1d, 0x50, 0xbe, 0x19, 0x29, 0xd0, 0xbd,
  0xcf, 0x88, 0x53, 0xbe, 0x6b, 0x16, 0x70, 0x3e, 0xc0, 0xbf, 0xb6, 0xbe,
  0xb9, 0x3d, 0xe9, 0xbd, 0x31, 0x6d, 0x14, 0xbb, 0x3b, 0x4d, 0xff, 0xbd,
  0xba, 0x2f, 0x53, 0x3e, 0x4f, 0xfe, 0xb1, 0xbe, 0xc6, 0xe3, 0x98, 0x3e,
  0x24, 0x37, 0x52, 0x3e, 0xaf, 0xce, 0xb2, 0x3d, 0xa2, 0x82, 0x62, 0xbe,
  0x61, 0x4c, 0xfa, 0x3d, 0xa0, 0xb6, 0xc6, 0x3d, 0xc6, 0x48, 0x95, 0xba,
  0x52, 0xce, 0x53, 0xbb, 0x8e, 0xa2, 0x9f, 0x3c, 0x46, 0x5d, 0xc3, 0xbd,
  0x5d, 0x49, 0xef, 0x3d, 0xc9, 0x4a, 0x84, 0xbe, 0xcf, 0x43, 0x68, 0xbd,
  0x54, 0xad, 0x1f, 0x3e, 0xb6, 0xe1, 0xed, 0x3d, 0x24, 0x9d, 0x90, 0xbd,
  0x5d, 0x3f, 0x84, 0x3d, 0x8e, 0x86, 0x31, 0xbd, 0x15, 0x79, 0x0e, 0xbe,
  0xbf, 0x73, 0x9e, 0xbe, 0xc2, 0xa9, 0xa4, 0xbb, 0x3f, 0xc6, 0xf8, 0xbd,
  0x73, 0xc6, 0x54, 0xbe, 0x7f, 0x24, 0xc3, 0x3d, 0x11, 0x67, 0xe6, 0x3d,
  0x0f, 0x95, 0xda, 0x3d, 0x1d, 0x67, 0x21, 0xbd, 0x3a, 0xab, 0xbd, 0xbe,
  0x84, 0xc7, 0xaa, 0xbd, 0xa8, 0x99, 0xc7, 0xbe, 0x8d, 0xf3, 0x2b, 0xbe,
  0x00, 0xee, 0xdc, 0xbd, 0x3b, 0x39, 0x63, 0xbc, 0xc6, 0xd2, 0x54, 0x3d,
  0x16, 0x6d, 0xdc, 0xbd, 0x1f, 0xe5, 0xab, 0xbe, 0xc8, 0xfa, 0x3f, 0xbd,
  0x86, 0x11, 0x05, 0x3c, 0x6a, 0xed, 0x84, 0xbd, 0xe0, 0x39, 0x9b, 0xbc,
  0x17, 0x72, 0x2a, 0x3d, 0x4f, 0x02, 0x07, 0xbd, 0x6d, 0xe7, 0x83, 0xbe,
  0xfe, 0x80, 0xb5, 0xbe, 0x57, 0x05, 0x1b, 0x3d, 0x93, 0x50, 0x92, 0xbe,
  0xaf, 0xa1, 0x58, 0xbe, 0x56, 0xee, 0xbc, 0xbe, 0xae, 0xba, 0xf2, 0xbc,
  0x6c, 0x8b, 0xac, 0x3d, 0xb8, 0x31, 0x92, 0x3b, 0xbd, 0x8a, 0x62, 0xbe,
  0x98, 0xec, 0x2a, 0x3e, 0x26, 0xcf, 0xdb, 0xbc, 0x70, 0x10, 0x6b, 0x3e,
  0x6f, 0xfc, 0xdf, 0xbd, 0xd3, 0x09, 0x83, 0x3e, 0x5e, 0xc0, 0xa1, 0x3e,
  0x45, 0x63, 0x4e, 0x3e, 0x1a, 0x10, 0xc5, 0x3d, 0xd6, 0xd9, 0x83, 0xbd,
  0xf5, 0x90, 0xeb, 0x3d, 0x82, 0x2f, 0xc2, 0x3d, 0x65, 0x18, 0x67, 0x3d,
  0x1d, 0x31, 0x53, 0x3e, 0x85, 0xbb, 0xd0, 0x3d, 0xa1, 0xcb, 0x02, 0xbe,
  0x63, 0xd9, 0x00, 0xbe, 0x6b, 0x1d, 0xa9, 0x3e, 0x28, 0x3d, 0xd7, 0xbd,
  0x1f, 0xd9, 0x4e, 0x3e, 0x18, 0x36, 0xd2, 0xbd, 0xfb, 0x31, 0x1c, 0x3e,
  0x36, 0x5c, 0x0b, 0x3e, 0xad, 0x6e, 0x2a, 0x3e, 0x53, 0x37, 0x95, 0x3c,
  0xcf, 0x78, 0x6e, 0xbe, 0xb6, 0xcf, 0xc2, 0x3c, 0x31, 0x4f, 0xa6, 0x3d,
  0xe4, 0xba, 0xca, 0x3d, 0xef, 0x7f, 0x50, 0x3e, 0x2d, 0xa8, 0x57, 0xbc,
  0xc4, 0xd0, 0x2a, 0x3d, 0xad, 0x2d, 0xc3, 0xbc, 0xd0, 0xf3, 0x49, 0x3e,
  0xe2, 0x9b, 0x0c, 0xbd, 0xfc, 0xe8, 0x22, 0x3f, 0x15, 0x29, 0x11, 0xbe,
  0xc7, 0xad, 0xbb, 0x3d, 0x15, 0x03, 0x67, 0x3e, 0x47, 0xa8, 0x0b, 0x3e,
  0x39, 0x14, 0x90, 0x3d, 0xbe, 0x7f, 0x4d, 0xbe, 0x50, 0x38, 0x82, 0x3e,
  0x9e, 0xca, 0xf8, 0x3d, 0x9b, 0x86, 0x6a, 0x3e, 0x46, 0x36, 0x59, 0xbe,
  0x37, 0x1f, 0x8f, 0xbe, 0xc8, 0xe6, 0x39, 0x3d, 0xb3, 0x3a, 0x2c, 0x3e,
  0x68, 0xe1, 0x27, 0xbd, 0x13, 0x33, 0x0e, 0xbe, 0xd1, 0x8f, 0x59, 0xbe,
  0x9f, 0x9e, 0x08, 0xbe, 0x88, 0x3c, 0xef, 0xbc, 0xde, 0x8a, 0xf8, 0x3d,
  0xe0, 0x62, 0xc9, 0x3d, 0xac, 0x8a, 0x9b, 0xbc, 0x1b, 0x32, 0x8c, 0xbe,
  0xf2, 0x37, 0x43, 0x3e, 0xef, 0xd1, 0xf7, 0x3d, 0x30, 0xfc, 0x3b, 0x3e,
  0x23, 0x00, 0xad, 0xbe, 0x65, 0x2a, 0x08, 0x3e, 0x36, 0x4a, 0xe6, 0x3d,
  0x83, 0x7b, 0x4b, 0xbe, 0x52, 0xee, 0xd2, 0x3d, 0xa2, 0xfc, 0xb3, 0x3a,
  0xf9, 0xe4, 0x12, 0xbd, 0x51, 0xbc, 0xbb, 0x3d, 0x06, 0x2f, 0x72, 0x3c,
  0x32, 0x1b, 0x76, 0xbd, 0xc5, 0x41, 0x54, 0xbe, 0x2c, 0xd9, 0xa0, 0xbe,
  0x16, 0x38, 0xfb, 0x3c, 0xde, 0xdb, 0xd3, 0x3d, 0xc9, 0xe6, 0xa2, 0x3c,
  0x64, 0x1a, 0x8f, 0x3d, 0x2e, 0x04, 0xd1, 0x3d, 0x27, 0x94, 0xf9, 0xbd,
  0x6c, 0x08, 0x27, 0x3c, 0x21, 0x1d, 0xaa, 0xbe, 0x75, 0x80, 0xda, 0x3d,
  0xc8, 0x99, 0x2b, 0x3e, 0x3b, 0xd6, 0x45, 0xbd, 0x12, 0x2e, 0x43, 0x3e,
  0xb9, 0x86, 0xa5, 0x3d, 0xda, 0x41, 0x67, 0xbd, 0x2a, 0xae, 0x90, 0x3d,
  0x64, 0x8d, 0x12, 0xbf, 0x65, 0x23, 0x8d, 0xbd, 0x81, 0x46, 0xee, 0xbc,
  0x20, 0x04, 0x31, 0xbe, 0xa6, 0x8c, 0x78, 0xbc, 0x92, 0x2e, 0xb4, 0x3c,
  0x96, 0xc1, 0x06, 0x3e, 0x87, 0x9e, 0x85, 0x3c, 0xf5, 0xed, 0xe8, 0xbe,
  0x52, 0x54, 0x51, 0xbe, 0x48, 0xb5, 0x61, 0x3d, 0xd8, 0xcb, 0x86, 0x3c,
  0x8e, 0xf8, 0x5b, 0x3e, 0xec, 0x50, 0xf9, 0xbd, 0x94, 0x16, 0x56, 0x3d,
  0x91, 0xa8, 0xb7, 0xbd, 0xc0, 0x97, 0xcb, 0xbe, 0x52, 0x8c, 0xfb, 0x3d,
  0x7f, 0x61, 0xb9, 0x3d, 0x1a, 0xd0, 0x0f, 0xbd, 0xc6, 0x0b, 0xae, 0x3d,
  0xd2, 0x46, 0xfd, 0x3c, 0xbf, 0x63, 0x21, 0xbd, 0xdc, 0x77, 0xbf, 0x3d,
  0x4b, 0x4e, 0x93, 0xbe, 0xcc, 0x83, 0xa2, 0x3d, 0xa1, 0xd0, 0x9a, 0xbc,
  0x05, 0x18, 0x66, 0xbe, 0x8d, 0xfa, 0x28, 0x3e, 0x7c, 0xc4, 0xe3, 0xbb,
  0x84, 0xaa, 0x82, 0xbd, 0x2b, 0xcf, 0x7c, 0xbd, 0xf1, 0x22, 0x19, 0xbe,
  0x67, 0xf5, 0xa9, 0x3d, 0x50, 0x53, 0x50, 0xbd, 0xcb, 0xc9, 0x49, 0xbe,
  0x4b, 0x3b, 0x04, 0xbc, 0x4a, 0x07, 0xfa, 0x3d, 0xc2, 0xe8, 0x7a, 0x3d,
  0x07, 0x37, 0x9a, 0x3d, 0x2c, 0x63, 0x00, 0xbe, 0x1e, 0x0e, 0xf7, 0x3d,
  0x73, 0x81, 0x99, 0xbd, 0xba, 0xa6, 0x3e, 0xbe, 0xca, 0x24, 0x48, 0xbd,
  0xdf, 0xbd, 0x13, 0xbe, 0x9f, 0xa6, 0x0c, 0x3e, 0x06, 0xb7, 0x26, 0xbd,
  0xd3, 0x8d, 0x99, 0xbe, 0xd4, 0xad, 0x64, 0x3e, 0x77, 0x20, 0xca, 0xbe,
  0x65, 0xbc, 0x3f, 0xbd, 0xec, 0x3b, 0x65, 0xbe, 0xab, 0x33, 0x12, 0x3e,
  0x67, 0xf4, 0x6c, 0x3e, 0xf8, 0x7f, 0xd1, 0xbd, 0xda, 0x39, 0x81, 0xbe,
  0xa8, 0x93, 0x3e, 0x3c, 0xc8, 0x24, 0x8f, 0xbd, 0x7d, 0x03, 0xa3, 0xbc,
  0xf6, 0xed, 0x86, 0xbd, 0x88, 0x98, 0x2d, 0x3e, 0xf4, 0x58, 0xc9, 0x3e,
  0x9e, 0x48, 0xba, 0x3e, 0x2b, 0x10, 0x34, 0xbd, 0x58, 0xed, 0xcb, 0xbd,
  0x26, 0xcb, 0x0d, 0x3e, 0xcd, 0xde, 0x72, 0x3e, 0xfa, 0xa0, 0x50, 0x3e,
  0x3f, 0x2c, 0x91, 0xbe, 0x56, 0xb8, 0x01, 0xbf, 0xce, 0x31, 0x09, 0xbe,
  0xcf, 0x6d, 0xac, 0xbd, 0x6f, 0x69, 0x11, 0xbf, 0x73, 0x8b, 0x57, 0xbe,
  0xf3, 0xfc, 0x0a, 0xbf, 0x56, 0x4a, 0x62, 0xbe, 0x65, 0x0a, 0x96, 0xbd,
  0xcf, 0xc2, 0xe2, 0x3e, 0xfc, 0xe4, 0x99, 0x3e, 0x70, 0x6b, 0xb7, 0xbc,
  0x48, 0x25, 0x80, 0x3d, 0xd8, 0x20, 0x1a, 0xbc, 0x53, 0x60, 0x3b, 0x3d,
  0x30, 0xe7, 0x83, 0xbb, 0xd3, 0x93, 0x84, 0x3d, 0xef, 0x35, 0x4b, 0x3e,
  0xd4, 0x08, 0xb7, 0xbc, 0x18, 0xcc, 0xe5, 0x3c, 0x13, 0x4f, 0x6e, 0xbd,
  0xf8, 0x51, 0xfe, 0x3d, 0x71, 0xfc, 0x12, 0x3d, 0xca, 0xfa, 0x9f, 0xbd,
  0x72, 0x84, 0xd0, 0xbd, 0x51, 0xd0, 0x2c, 0xbe, 0xf5, 0x8e, 0x3b, 0x3e,
  0x4d, 0xc8, 0x0f, 0xbf, 0x2b, 0x9c, 0xc6, 0x3c, 0xe0, 0x3f, 0xd1, 0x3d,
  0x8d, 0x83, 0xef, 0x3d, 0x25, 0xf8, 0x54, 0x3e, 0x5a, 0xec, 0x78, 0xbd,
  0xf9, 0x23, 0x22, 0x3d, 0xfc, 0x72, 0x46, 0xbe, 0x3b, 0xe1, 0x66, 0xbd,
  0x0c, 0x78, 0x65, 0xbd, 0x06, 0x82, 0x5f, 0x3d, 0x42, 0xaf, 0x3d, 0xbd,
  0x61, 0xc3, 0x9d, 0x3d, 0xd6, 0x92, 0xa3, 0x3d, 0x60, 0x1a, 0x4b, 0x3e,
  0x6a, 0xae, 0xb3, 0xbd, 0xa7, 0xc7, 0xff, 0xbe, 0xf5, 0x12, 0x01, 0xbd,
  0x47, 0x27, 0x15, 0xbe, 0xb0, 0x50, 0xc1, 0x3d, 0x1d, 0x7e, 0x17, 0xbe,
  0x56, 0xf4, 0x1e, 0xbc, 0xca, 0xbc, 0x3c, 0xba, 0xd8, 0x52, 0x0f, 0xbe,
  0x6d, 0x06, 0x3f, 0xbd, 0xe4, 0x08, 0x10, 0x3e, 0x90, 0x68, 0xad, 0x3d,
  0x67, 0xdc, 0x65, 0xbd, 0xfa, 0xbd, 0x54, 0xbd, 0x85, 0x0d, 0xf2, 0xbd,
  0x31, 0x6b, 0x7c, 0xbd, 0xe1, 0xed, 0xaa, 0xbb, 0xea, 0x2d, 0xab, 0xbe,
  0x65, 0xfd, 0x87, 0xba, 0x51, 0xd8, 0xa6, 0xbe, 0x65, 0xa2, 0x84, 0xbe,
  0x85, 0x66, 0x7c, 0x3d, 0x9f, 0x02, 0x58, 0xbc, 0xbf, 0x76, 0x74, 0x3e,
  0x84, 0x99, 0x6b, 0xbe, 0xfe, 0x40, 0x88, 0xbc, 0xfc, 0xb1, 0x63, 0xbd,
  0x6b, 0x5b, 0x0f, 0xbe, 0x44, 0x26, 0x01, 0xbe, 0xe9, 0xc9, 0x31, 0x3d,
  0xbc, 0x55, 0x19, 0xbe, 0x9b, 0x5e, 0xd5, 0x3c, 0x0c, 0x62, 0x56, 0xbe,
  0x3d, 0x6e, 0xa8, 0xbe, 0xb5, 0x0b, 0x02, 0x3d, 0x41, 0x81, 0x97, 0xbe,
  0x96, 0xd3, 0x6e, 0xbe, 0x25, 0x0d, 0x91, 0xbe, 0x44, 0x3d, 0xa7, 0xba,
  0xde, 0xf5, 0x86, 0x3c, 0xa9, 0x74, 0x2d, 0xbd, 0x06, 0x48, 0x9c, 0xbd,
  0xc4, 0x1b, 0x74, 0xbd, 0x5b, 0x54, 0xf2, 0xbb, 0xb7, 0xc1, 0xb3, 0xbc,
  0x85, 0x02, 0x30, 0x3d, 0x29, 0xa4, 0x7a, 0x3e, 0x82, 0xa2, 0x65, 0xbd,
  0x4c, 0xa6, 0x54, 0x3e, 0xd0, 0x9a, 0x00, 0x3e, 0xae, 0xd2, 0x1f, 0x3d,
  0xac, 0xf8, 0x50, 0x3d, 0x92, 0x7f, 0xf0, 0xbd, 0xdf, 0x6d, 0x14, 0x3e,
  0x37, 0x11, 0x9f, 0x3e, 0xba, 0x3f, 0x2b, 0x3b, 0x91, 0x15, 0x8e, 0x3b,
  0x22, 0xe1, 0x5a, 0x3c, 0xd5, 0xa2, 0x99, 0x3e, 0x4f, 0x68, 0x44, 0xbd,
  0x85, 0xa0, 0x9f, 0x3e, 0x57, 0xcc, 0x23, 0xbd, 0xe8, 0x41, 0x6c, 0x3d,
  0xf2, 0xcf, 0xce, 0xbd, 0x63, 0x57, 0x09, 0xbe, 0x4d, 0x8c, 0x59, 0xbe,
  0x1e, 0xef, 0x09, 0xbd, 0xf6, 0x8c, 0xc0, 0x3c, 0x89, 0xc5, 0xd9, 0xbd,
  0x24, 0x17, 0x0a, 0xbd, 0x4a, 0x91, 0x0f, 0x3c, 0xa3, 0xc7, 0x13, 0x3d,
  0xe7, 0xd5, 0x93, 0xbd, 0x33, 0xd6, 0x18, 0xbe, 0x76, 0x62, 0xc1, 0xbc,
  0xae, 0xd7, 0x11, 0xbe, 0x84, 0xb8, 0x0a, 0xbd, 0x79, 0xe3, 0xbd, 0xbe,
  0x68, 0xab, 0x3d, 0xbe, 0xf1, 0x4b, 0x4b, 0x3e, 0xcd, 0x8c, 0x4a, 0xbe,
  0xfa, 0x8a, 0x58, 0xbe, 0x0f, 0xbc, 0x8b, 0xbe, 0xd0, 0x14, 0x45, 0xbe,
  0x36, 0xc2, 0xd0, 0x3d, 0x84, 0x0d, 0xfd, 0x3d, 0x88, 0xdf, 0xb1, 0x3b,
  0x3c, 0x54, 0x9a, 0xbd, 0x39, 0x89, 0x78, 0xbe, 0xea, 0x9e, 0x92, 0xbe,
  0xa0, 0xc1, 0x36, 0xbe, 0xc3, 0x82, 0x55, 0xbe, 0x16, 0xca, 0x2e, 0x3e,
  0x03, 0x8b, 0xb3, 0x3d, 0x5f, 0x12, 0x13, 0xbd, 0x08, 0x2d, 0x28, 0xbe,
  0x3e, 0x3e, 0x06, 0x3e, 0x61, 0x2d, 0x27, 0xbc, 0x9e, 0x09, 0x26, 0xbd,
  0xba, 0xe9, 0x81, 0xbe, 0x05, 0xa6, 0x67, 0xbd, 0xd9, 0x94, 0x9d, 0x3d,
  0xf8, 0xee, 0xf9, 0xbd, 0x82, 0xe4, 0x86, 0x3d, 0x40, 0x43, 0x49, 0xbe,
  0x97, 0xe1, 0x0b, 0xbd, 0xbf, 0x23, 0x29, 0xbe, 0x95, 0x18, 0xb2, 0xbe,
  0xc1, 0x6d, 0x72, 0x3c, 0x89, 0x0f, 0x6b, 0xbd, 0x8d, 0xec, 0xb8, 0xbd,
  0x28, 0xb0, 0x9a, 0x3d, 0xaf, 0x7e, 0xbc, 0x3d, 0x01, 0x57, 0x05, 0xbc,
  0xe0, 0xcd, 0x1c, 0xbd, 0x8a, 0x68, 0xc2, 0xbd, 0xe2, 0xdb, 0x19, 0x3d,
  0x04, 0x93, 0xe1, 0xbd, 0x40, 0xfe, 0xb3, 0xbd, 0xaf, 0x34, 0x20, 0x3e,
  0x24, 0x46, 0x01, 0x3e, 0x27, 0x32, 0x0c, 0xbe, 0x09, 0x32, 0xf1, 0x3d,
  0xae, 0x04, 0x88, 0xbe, 0x95, 0x8f, 0x43, 0x3e, 0x85, 0x00, 0x4e, 0x3d,
  0x35, 0xed, 0x11, 0x3e, 0x16, 0x76, 0xaf, 0x3e, 0xbf, 0x44, 0x34, 0x3e,
  0xed, 0x90, 0x2f, 0x3e, 0xbf, 0x4f, 0x51, 0xbd, 0xed, 0x5c, 0xb8, 0x3c,
  0xab, 0xe7, 0xfc, 0x3d, 0xff, 0x83, 0x08, 0x3e, 0x84, 0x6f, 0x2e, 0xbc,
  0x94, 0x06, 0x77, 0xbd, 0xca, 0x68, 0x05, 0x3d, 0x15, 0xee, 0xec, 0xbb,
  0x81, 0xda, 0x75, 0x3d, 0x1d, 0x68, 0x99, 0xbe, 0x0b, 0xff, 0xb0, 0x3e,
  0x62, 0x95, 0xa0, 0xbe, 0xc4, 0x2d, 0xc3, 0x3e, 0x06, 0xcf, 0x2e, 0x3e,
  0x9d, 0x96, 0x65, 0x3e, 0x37, 0x24, 0xa3, 0x3d, 0xab, 0xc1, 0x86, 0x3b,
  0x52, 0x30, 0x4c, 0x3e, 0x88, 0x74, 0x77, 0x3e, 0xd0, 0xdd, 0x34, 0x3e,
  0xd3, 0xe3, 0xa4, 0xbb, 0xb8, 0x25, 0xb5, 0x3b, 0xf6, 0x5a, 0xe9, 0xbd,
  0x3b, 0x1e, 0xaa, 0xbd, 0x1b, 0x14, 0x92, 0x3e, 0xe1, 0x80, 0x10, 0xbe,
  0x62, 0x1f, 0x25, 0x3e, 0x87, 0xe5, 0xbd, 0xbe, 0xf5, 0xd4, 0x27, 0xbc,
  0x63, 0xae, 0x72, 0x3e, 0xc4, 0x5a, 0x79, 0xbc, 0x95, 0xb9, 0x80, 0xbd,
  0x44, 0x26, 0xfd, 0xbd, 0x9a, 0x88, 0x84, 0xbd, 0xd4, 0x95, 0x38, 0xbd,
  0x37, 0xa2, 0x54, 0xbd, 0xb6, 0x32, 0x0b, 0x3d, 0x13, 0x8b, 0x2e, 0x3c,
  0xde, 0xc7, 0x86, 0xbb, 0xe1, 0x3e, 0x34, 0xbe, 0xf9, 0x53, 0xb2, 0xbd,
  0x79, 0x95, 0x1e, 0x3e, 0x48, 0xa4, 0xb7, 0x3e, 0xdc, 0x8b, 0x1c, 0xbd,
  0xa0, 0x61, 0xeb, 0x3b, 0xdf, 0xee, 0x40, 0xbe, 0x05, 0x91, 0x79, 0xbe,
  0x0d, 0xe0, 0xc5, 0xbd, 0xbf, 0x87, 0xd3, 0xbe, 0xab, 0xcc, 0x07, 0xbe,
  0x51, 0xf1, 0x46, 0xbe, 0x34, 0xe9, 0xa8, 0xbe, 0xf8, 0x8e, 0x8a, 0xbe,
  0x94, 0x42, 0x03, 0xbf, 0x0a, 0xd8, 0x9c, 0x3b, 0x7d, 0x0d, 0x51, 0xbe,
  0xb5, 0xb0, 0xa9, 0xbe, 0xfe, 0xce, 0x97, 0x3d, 0xc2, 0xdf, 0x1e, 0xbe,
  0xd3, 0x00, 0x2e, 0x3e, 0x53, 0x18, 0xa8, 0x3e, 0xb6, 0x5b, 0x0c, 0xbe,
  0xcc, 0xef, 0x09, 0x3d, 0xb9, 0xcb, 0xbd, 0x3d, 0x88, 0x64, 0xdf, 0xbe,
  0x23, 0x81, 0xe1, 0xbd, 0x54, 0x35, 0xf7, 0x3c, 0x77, 0x04, 0x1b, 0x3d,
  0xa9, 0xe1, 0x7d, 0xbe, 0xb4, 0xe2, 0xfa, 0xbc, 0xe5, 0x64, 0x05, 0xbb,
  0x9f, 0xa9, 0xe2, 0xbd, 0x46, 0xcb, 0x4e, 0xbe, 0x06, 0xfa, 0x2e, 0x3d,
  0x74, 0x15, 0x70, 0x3e, 0x9e, 0x6f, 0x2e, 0x3e, 0x6c, 0xe7, 0x19, 0x3e,
  0x22, 0x8d, 0x39, 0x3e, 0xb6, 0x34, 0xad, 0x3e, 0x04, 0xba, 0x9e, 0x3e,
  0xf6, 0xf5, 0x88, 0xbe, 0xbb, 0xf6, 0x13, 0x3d, 0xeb, 0x4b, 0x46, 0x3e,
  0x9a, 0x55, 0x48, 0x3e, 0x84, 0x3a, 0x67, 0x3d, 0xd2, 0xdc, 0x60, 0x3e,
  0x89, 0x50, 0xc4, 0x3d, 0xdc, 0x31, 0x5a, 0x3e, 0xab, 0x59, 0x65, 0xbc,
  0xeb, 0x04, 0xfc, 0xba, 0x55, 0x7e, 0xa5, 0x3e, 0x7d, 0xee, 0x35, 0x3d,
  0x2e, 0x0e, 0x5b, 0x3e, 0x05, 0x48, 0x6b, 0x3d, 0xe9, 0x93, 0xc3, 0x3e,
  0xce, 0xbd, 0xcb, 0x3e, 0xd2, 0x32, 0xf2, 0xbd, 0x04, 0xd0, 0xcc, 0x3e,
  0x8e, 0xce, 0xc0, 0x3d, 0xc5, 0x1c, 0x35, 0x3e, 0xb8, 0xbf, 0xf8, 0xbd,
  0xa2, 0x6a, 0xcd, 0xbd, 0x9c, 0x9c, 0xd4, 0x3d, 0x8d, 0x4f, 0x29, 0x3e,
  0xd0, 0xdd, 0x59, 0x3d, 0x88, 0xe8, 0x5f, 0x3d, 0xc9, 0x67, 0x4f, 0xbd,
  0xa2, 0x4a, 0x44, 0x3e, 0xfa, 0x00, 0x8c, 0xbd, 0x56, 0x51, 0x1b, 0x3e,
  0x24, 0x85, 0xe7, 0xbd, 0x6f, 0xd7, 0x83, 0xbd, 0x8b, 0xe4, 0x9b, 0xbe,
  0x11, 0x6f, 0x92, 0x3d, 0x29, 0xb7, 0x63, 0x3e, 0xc1, 0x80, 0x29, 0x3d,
  0xb2, 0xff, 0xe8, 0x3d, 0x4b, 0x39, 0x3e, 0x3d, 0xc4, 0xd7, 0xf3, 0x3d,
  0xb7, 0x8f, 0xaf, 0x3d, 0xe2, 0xff, 0x67, 0xbe, 0x3b, 0xb9, 0x94, 0x3c,
  0x75, 0x4a, 0x63, 0xbd, 0x3e, 0x69, 0x46, 0x3e, 0x26, 0x15, 0x8c, 0xbe,
  0x2f, 0x45, 0x02, 0xbe, 0xc2, 0x3a, 0x3c, 0xbe, 0x0d, 0x57, 0x93, 0xbd,
  0x94, 0xbe, 0x1b, 0xbd, 0x24, 0x99, 0x91, 0xbe, 0x75, 0xed, 0x4d, 0x39,
  0x25, 0x19, 0x1b, 0xbe, 0x9c, 0x85, 0x23, 0xbd, 0x34, 0x10, 0x72, 0x3e,
  0x25, 0x6a, 0xed, 0xbb, 0xe3, 0x45, 0xa6, 0x3d, 0x95, 0xb5, 0x0f, 0xbd,
  0x88, 0x8a, 0x4d, 0x3d, 0x74, 0x42, 0x8f, 0xbd, 0xa9, 0x13, 0xc1, 0x3e,
  0x09, 0x9d, 0xb5, 0xbb, 0x17, 0x64, 0xf0, 0xbd, 0x62, 0x7b, 0x6f, 0xbe,
  0xb0, 0x16, 0xa1, 0xbd, 0x26, 0x50, 0x87, 0xbd, 0xe9, 0x8d, 0x4b, 0x3c,
  0x4e, 0xa0, 0xa4, 0x3c, 0x0d, 0x2b, 0xca, 0xbd, 0x96, 0xcc, 0x03, 0xbe,
  0xa3, 0xd4, 0xe1, 0xbc, 0x6c, 0x08, 0x15, 0xbd, 0x61, 0x74, 0x10, 0xbc,
  0xc0, 0xae, 0x21, 0x3d, 0x7e, 0x4f, 0x98, 0xba, 0x80, 0x2e, 0xb4, 0xbe,
  0xa4, 0x85, 0x1c, 0x39, 0x3d, 0x2e, 0xa1, 0x3e, 0x84, 0x0d, 0xa6, 0x3e,
  0x85, 0x84, 0x7f, 0x3e, 0x75, 0x38, 0x41, 0x3e, 0x4c, 0x72, 0xda, 0xbd,
  0xb7, 0x93, 0x7b, 0x3d, 0xaa, 0xf4, 0x8a, 0x3e, 0x6d, 0x79, 0x89, 0x3e,
  0x99, 0xdd, 0x88, 0xbe, 0x02, 0x03, 0xcb, 0xbe, 0x27, 0xa0, 0x30, 0xbe,
  0xb5, 0x5a, 0xdb, 0xbd, 0x77, 0xbc, 0xe5, 0xbe, 0x6b, 0x7d, 0x55, 0xbe,
  0x8b, 0xac, 0xeb, 0xbe, 0x8f, 0x25, 0xa3, 0xbe, 0x35, 0xb6, 0x91, 0x3c,
  0x3a, 0x31, 0xe2, 0x3e, 0xbb, 0xcb, 0x55, 0x3d, 0x54, 0xf6, 0x63, 0xbe,
  0x2d, 0x85, 0x23, 0x3e, 0x02, 0xc6, 0xce, 0x3d, 0xec, 0xe2, 0x01, 0x3e,
  0x43, 0x66, 0xca, 0xbc, 0x57, 0x1f, 0x1e, 0x3d, 0x8e, 0x7f, 0xe0, 0x3d,
  0x95, 0x89, 0x60, 0xbc, 0x67, 0x2c, 0x15, 0xbc, 0x72, 0x8b, 0x1a, 0xbd,
  0x86, 0xf4, 0x56, 0x3d, 0x6c, 0x13, 0x06, 0x3d, 0xe2, 0xf0, 0x06, 0xbe,
  0x9d, 0x3e, 0x20, 0x3e, 0x90, 0x56, 0x56, 0x3d, 0x4a, 0x40, 0x44, 0x3e,
  0xe2, 0x39, 0xac, 0xbe, 0xdd, 0xe5, 0x44, 0x3d, 0x87, 0x86, 0x34, 0x3e,
  0x47, 0xf6, 0x8c, 0xbe, 0xea, 0xa0, 0xe0, 0x3d, 0xcd, 0xcf, 0x5c, 0x3d,
  0x84, 0x4b, 0x1f, 0x3e, 0x40, 0x6a, 0x25, 0xbe, 0x69, 0x2a, 0xbf, 0xbd,
  0xae, 0x16, 0x56, 0x3d, 0xe8, 0x48, 0xb2, 0x3c, 0x80, 0x36, 0xa7, 0x3d,
  0x9c, 0xa9, 0x09, 0x3e, 0xec, 0x9b, 0xd8, 0x3b, 0xc9, 0x6d, 0x53, 0x3e,
  0x00, 0x89, 0xd1, 0xbb, 0x4d, 0x39, 0xe7, 0xbe, 0xc6, 0x24, 0x53, 0x3b,
  0x27, 0x72, 0xb2, 0x3d, 0xf2, 0x55, 0x4e, 0xbe, 0xd6, 0x49, 0x81, 0xbd,
  0x59, 0x68, 0xcc, 0xbd, 0x81, 0x66, 0xaf, 0x3d, 0x8f, 0xb1, 0x1e, 0xbe,
  0x1f, 0x42, 0x1b, 0xbd, 0xf6, 0x35, 0xeb, 0xbd, 0x0a, 0x53, 0x8f, 0x3d,
  0xf1, 0x92, 0xab, 0x3c, 0x67, 0xb4, 0x40, 0xbe, 0xb3, 0xe6, 0x5b, 0x3d,
  0x70, 0x5d, 0x1a, 0x3e, 0xcb, 0x24, 0x25, 0x3e, 0xec, 0xc4, 0x8e, 0xbd,
  0x69, 0xff, 0x8c, 0xbd, 0xf6, 0x46, 0x25, 0x3d, 0x05, 0xff, 0x8b, 0xbe,
  0xe8, 0x55, 0x44, 0xbe, 0xd8, 0x88, 0xe1, 0x3d, 0x70, 0xd8, 0x99, 0xbd,
  0x84, 0x49, 0xb0, 0xbd, 0x36, 0x09, 0x7f, 0xbb, 0x31, 0x5b, 0x90, 0x3e,
  0x02, 0x54, 0xc5, 0xbd, 0x59, 0x80, 0x62, 0x3e, 0x06, 0x09, 0xe1, 0xbb,
  0xe7, 0xbd, 0x99, 0x3e, 0xe5, 0x4c, 0xbd, 0x3e, 0x15, 0x83, 0xc6, 0x3e,
  0x83, 0xdd, 0xdd, 0xbc, 0x66, 0x07, 0xa6, 0x3d, 0x05, 0x5a, 0x32, 0x3e,
  0xf6, 0x81, 0x19, 0x3e, 0xac, 0x6c, 0x88, 0x3e, 0x11, 0x08, 0x73, 0x3d,
  0x87, 0x32, 0x23, 0xbe, 0x73, 0x55, 0x82, 0xbd, 0xf5, 0x02, 0x91, 0x3d,
  0x39, 0x4a, 0x50, 0x3e, 0x93, 0x18, 0x73, 0xbe, 0x6e, 0xe3, 0x7c, 0x3e,
  0x8a, 0xe3, 0x0b, 0xbe, 0x8f, 0x5c, 0x44, 0x3d, 0x59, 0x24, 0x83, 0x3d,
  0x82, 0xf2, 0x47, 0x3e, 0x3d, 0x08, 0x94, 0x3c, 0x8d, 0x5c, 0xaa, 0x3d,
  0xf1, 0x23, 0xdb, 0xbd, 0xdf, 0xbd, 0x13, 0xbd, 0x6b, 0xa4, 0x9d, 0x3c,
  0xe2, 0xbb, 0x82, 0x3e, 0xf6, 0x73, 0x25, 0x3e, 0x12, 0x74, 0xe4, 0xbc,
  0x7c, 0xc0, 0x0c, 0xbb, 0xb1, 0xdc, 0x64, 0x3e, 0x59, 0xff, 0x10, 0x3d,
  0x36, 0x98, 0x16, 0x3e, 0xe6, 0x48, 0xbd, 0xbe, 0x40, 0x9c, 0x05, 0xbe,
  0x72, 0x8b, 0xec, 0xbc, 0xfe, 0x17, 0x21, 0xbd, 0xd3, 0x84, 0xe2, 0xbd,
  0x6e, 0x2a, 0x4e, 0xbe, 0xfe, 0x3b, 0xfe, 0xbc, 0xb4, 0xcd, 0x0f, 0xbe,
  0x60, 0x4e, 0x81, 0x3c, 0xb4, 0x07, 0xdb, 0x3c, 0xe0, 0x69, 0x78, 0xbd,
  0x08, 0xe9, 0x6e, 0x3b, 0x02, 0x7a, 0x1a, 0xbe, 0xf0, 0xb8, 0x7a, 0x3c,
  0x95, 0xa6, 0x50, 0xbe, 0xe8, 0xba, 0x43, 0xbe, 0x67, 0x36, 0xb8, 0xbd,
  0xbd, 0xa3, 0x4c, 0xbe, 0xae, 0x1a, 0xae, 0xbd, 0x8b, 0x05, 0x80, 0xbe,
  0x71, 0xaa, 0x46, 0xbd, 0x3d, 0xa1, 0xc6, 0xbc, 0xbc, 0x2f, 0x0e, 0x3e,
  0xcd, 0x01, 0xa3, 0x3d, 0xc3, 0xd1, 0x4c, 0xbe, 0xaf, 0x5c, 0x0e, 0xbe,
  0x61, 0xff, 0x26, 0xbe, 0x3e, 0x33, 0xc5, 0x3c, 0xc7, 0x1c, 0x31, 0xbe,
  0x51, 0xb9, 0x97, 0x3d, 0x37, 0x99, 0xb0, 0xbd, 0x1a, 0xd2, 0xd5, 0x3c,
  0x04, 0x0a, 0x55, 0xbe, 0x3d, 0xc0, 0xea, 0x3d, 0x4a, 0x8e, 0x28, 0x3e,
  0xf2, 0x80, 0xf9, 0x3d, 0x64, 0x14, 0xb0, 0x3d, 0xb4, 0x75, 0xb5, 0x3d,
  0xf9, 0xae, 0x3f, 0x3d, 0x48, 0xac, 0x45, 0xbe, 0x7a, 0x75, 0x99, 0x3d,
  0x09, 0x67, 0x33, 0xbc, 0xb5, 0x56, 0x61, 0xbe, 0x18, 0x13, 0x8b, 0xbe,
  0xa8, 0x26, 0x81, 0x3c, 0x72, 0xdb, 0x94, 0xbc, 0xd7, 0xd9, 0x92, 0x3c,
  0xca, 0xcf, 0x35, 0xbe, 0x7c, 0xb6, 0x1a, 0xbe, 0x77, 0x42, 0xc3, 0xbb,
  0x2b, 0x83, 0x46, 0xbe, 0x02, 0x4f, 0xd7, 0xbc, 0xa2, 0x2c, 0x28, 0xbe,
  0xaa, 0x3f, 0xd6, 0xbd, 0xf8, 0x0c, 0x22, 0x3d, 0xe6, 0x8b, 0x0e, 0xbe,
  0xe3, 0x13, 0x96, 0x3d, 0xa3, 0x69, 0x09, 0x3e, 0xa8, 0x79, 0x1b, 0x3e,
  0xf2, 0xcb, 0x6c, 0x3d, 0xca, 0x22, 0xb4, 0xbd, 0xb4, 0x08, 0x97, 0x3d,
  0x9c, 0xfc, 0xef, 0xbd, 0x3a, 0xc1, 0xac, 0xbe, 0x62, 0x7d, 0x68, 0xbe,
  0xe8, 0x1f, 0x93, 0xbc, 0x28, 0xa7, 0xed, 0x3d, 0x56, 0xbf, 0x07, 0xbb,
  0xce, 0xc8, 0x91, 0x3d, 0x81, 0x1b, 0x7c, 0x3d, 0x78, 0x19, 0x35, 0xbe,
  0x17, 0xd8, 0xb7, 0x3c, 0xa2, 0x62, 0x81, 0xbe, 0x4a, 0x2c, 0xb7, 0x3d,
  0x26, 0x95, 0x38, 0xbe, 0x3d, 0xa0, 0x8f, 0xbd, 0x55, 0xce, 0x58, 0xbe,
  0xfe, 0xcd, 0x6e, 0xbd, 0x2c, 0xb9, 0xf2, 0xbd, 0x54, 0xbd, 0xe7, 0x3d,
  0xe1, 0xe6, 0x5e, 0xbe, 0xf1, 0xdc, 0xf1, 0xbd, 0x1b, 0xb1, 0xfb, 0x3d,
  0xe7, 0x2e, 0xb6, 0xbc, 0xf2, 0xa3, 0x28, 0xbe, 0xfc, 0xa6, 0x26, 0x3d,
  0xa3, 0x03, 0x34, 0xbe, 0x34, 0x93, 0xb1, 0xbd, 0x20, 0xac, 0x19, 0xbe,
  0x6f, 0xd9, 0x13, 0xbd, 0x9e, 0x73, 0x03, 0x3d, 0x3e, 0xef, 0xf8, 0xbd,
  0x83, 0x4b, 0xa0, 0xbe, 0xb3, 0xcf, 0x6a, 0x3d, 0x00, 0x2b, 0xe3, 0xbd,
  0xed, 0x65, 0x15, 0x3e, 0x24, 0xce, 0xee, 0x3d, 0x87, 0x0c, 0x10, 0xbe,
  0xd8, 0x1d, 0x06, 0x3b, 0x0d, 0x44, 0x5f, 0xbe, 0xfc, 0x37, 0xaf, 0xbc,
  0x53, 0xe9, 0x84, 0xbe, 0xfe, 0x8b, 0x2b, 0xbe, 0xf1, 0x44, 0x16, 0xbe,
  0x46, 0xde, 0x03, 0xbd, 0x88, 0xf3, 0x1c, 0xbe, 0xa9, 0x05, 0x46, 0xbe,
  0x8e, 0x64, 0x7f, 0x3b, 0x82, 0x6a, 0x9d, 0xbe, 0x31, 0xb7, 0x96, 0xbd,
  0xff, 0xf2, 0xac, 0xbe, 0x29, 0x75, 0xe9, 0x3d, 0x03, 0x93, 0x6c, 0xbe,
  0xd2, 0x34, 0x2f, 0xbe, 0x93, 0xd5, 0x8c, 0xbd, 0xf6, 0x99, 0x0e, 0x3e,
  0x9b, 0x90, 0x21, 0xbe, 0x78, 0x40, 0x1b, 0x3e, 0xb7, 0x15, 0x36, 0xbe,
  0x4e, 0x1c, 0x86, 0x3d, 0x1b, 0x0b, 0x9b, 0xbd, 0x82, 0xbf, 0x9e, 0x3e,
  0x5a, 0x65, 0x07, 0x3f, 0x82, 0x4c, 0x89, 0xbe, 0x0e, 0xad, 0x5f, 0x3e,
  0x83, 0x91, 0xd7, 0x3e, 0x48, 0xf6, 0x45, 0xbf, 0x4f, 0x4b, 0x6f, 0x3e,
  0xc5, 0x16, 0x74, 0xbe, 0x2a, 0x16, 0xe1, 0x3d, 0x42, 0x13, 0x1b, 0xbe,
  0xb3, 0x94, 0xb4, 0x3d, 0x1f, 0x5f, 0x84, 0xbd, 0x11, 0xd8, 0x96, 0x3d,
  0x45, 0xbc, 0x6e, 0xbe, 0x68, 0x66, 0x1b, 0xbd, 0x3b, 0xdf, 0x8d, 0xbd,
  0x3b, 0x15, 0x9f, 0xbd, 0x52, 0x0c, 0x71, 0x3d, 0x6b, 0x41, 0xd3, 0x3b,
  0xa3, 0x77, 0x90, 0x3d, 0x50, 0x03, 0xc0, 0x3c, 0x53, 0x09, 0x85, 0xbe,
  0x63, 0x54, 0xd2, 0x3c, 0x91, 0x46, 0x6a, 0xbe, 0xe4, 0x9c, 0x19, 0x3e,
  0xe2, 0x1d, 0x95, 0x3d, 0x13, 0xe3, 0x7e, 0x3e, 0xe0, 0x68, 0x88, 0xbc,
  0xbc, 0x2c, 0xd9, 0xbc, 0xfc, 0xd4, 0xd5, 0xbd, 0x79, 0x8d, 0xbe, 0xbd,
  0xa0, 0x44, 0x0d, 0xbc, 0x7a, 0x3b, 0x0a, 0x3e, 0x0f, 0xbe, 0x97, 0xbd,
  0xb4, 0xe2, 0x7a, 0xbd, 0xa8, 0x5d, 0xe5, 0xbd, 0x6f, 0xa2, 0x72, 0x3e,
  0xb7, 0x68, 0x42, 0xbd, 0xe5, 0x5a, 0x92, 0x3c, 0xe6, 0x89, 0xf2, 0xbd,
  0xf1, 0x37, 0x61, 0x3e, 0x6d, 0x44, 0xae, 0xbd, 0x3e, 0xfb, 0xcf, 0xbd,
  0x07, 0xc2, 0x5b, 0x3c, 0xad, 0xa0, 0x81, 0x3c, 0x9a, 0x35, 0x20, 0x3d,
  0x47, 0xd0, 0xce, 0xbc, 0xa8, 0xcb, 0x06, 0x3d, 0x3c, 0x14, 0x12, 0x3c,
  0x09, 0xe9, 0xf6, 0xbd, 0x5d, 0xfd, 0x42, 0xbd, 0xca, 0x70, 0x99, 0xbd,
  0x0b, 0xf0, 0x34, 0x3e, 0x47, 0xb5, 0xa3, 0x3d, 0xde, 0xf4, 0x9c, 0x3c,
  0x6f, 0x2c, 0x69, 0x3c, 0x7c, 0xec, 0x01, 0xbe, 0x69, 0x01, 0x3e, 0x3d,
  0xac, 0x88, 0x10, 0x3e, 0x60, 0x16, 0x38, 0xbd, 0x3d, 0x59, 0x37, 0x3c,
  0xf9, 0x85, 0xc0, 0x3c, 0x11, 0x48, 0xbb, 0x3d, 0xf9, 0x20, 0x34, 0x3e,
  0x79, 0xce, 0xa4, 0xbd, 0x33, 0x06, 0x9e, 0xbc, 0x9b, 0x3b, 0xd8, 0xbd,
  0x41, 0xa2, 0x65, 0xbd, 0x48, 0xb0, 0xa9, 0x3c, 0x45, 0xb3, 0x61, 0x3c,
  0x31, 0x83, 0x05, 0x3e, 0xb5, 0x1e, 0x23, 0xbe, 0x5c, 0x1f, 0xb3, 0xbe,
  0x4a, 0x6a, 0x5e, 0xbe, 0xe3, 0xb6, 0xbe, 0xbd, 0x2b, 0x17, 0x0f, 0xbe,
  0x74, 0xae, 0x3e, 0x3d, 0x7c, 0x8f, 0xee, 0xbd, 0x84, 0xcf, 0x8d, 0x3d,
  0x17, 0x7f, 0x82, 0xbe, 0x89, 0xec, 0x14, 0xbe, 0xb8, 0x71, 0x88, 0xbd,
  0x86, 0x91, 0x2c, 0xbe, 0x3a, 0x33, 0x8f, 0xbd, 0xa3, 0xa0, 0xf4, 0xbd,
  0x8e, 0x75, 0x7e, 0xbc, 0xda, 0x33, 0xab, 0x3c, 0xd4, 0x49, 0xa8, 0xbd,
  0xd4, 0x00, 0x37, 0xbd, 0x1d, 0x43, 0xfa, 0x3d, 0x94, 0x3a, 0x73, 0xbe,
  0xae, 0xf6, 0x13, 0xbe, 0x24, 0x57, 0xbf, 0xbd, 0x6b, 0x3d, 0xcf, 0xbd,
  0x3b, 0x94, 0xef, 0xbd, 0xe2, 0xf4, 0xe4, 0xbd, 0x63, 0xdf, 0x92, 0xbe,
  0x8c, 0xa7, 0xf1, 0xbd, 0xad, 0x60, 0x1d, 0xbd, 0x3f, 0xe8, 0x72, 0xbd,
  0x55, 0x26, 0xd0, 0xbe, 0xc1, 0x5f, 0x95, 0xbd, 0xfc, 0xf0, 0xfe, 0xbd,
  0x43, 0xc4, 0xd3, 0x3d, 0x8c, 0xe4, 0xd5, 0xbd, 0xe8, 0x5a, 0xb7, 0xbe,
  0x24, 0x9b, 0x06, 0xbf, 0x4a, 0x6a, 0x3e, 0xbe, 0x38, 0x49, 0x78, 0xbe,
  0xd6, 0x75, 0x62, 0xbe, 0x16, 0x33, 0x54, 0xbe, 0xb4, 0xe2, 0x56, 0xbe,
  0x2a, 0x0d, 0x84, 0xbe, 0x8b, 0xc1, 0xb0, 0xbe, 0xdb, 0x1f, 0xc6, 0x3d,
  0x29, 0x84, 0x8b, 0xbe, 0x2d, 0x9f, 0x2d, 0xbe, 0x8f, 0x7b, 0x0a, 0x3d,
  0x50, 0x3a, 0x15, 0xbe, 0x6b, 0x7c, 0x8b, 0x3e, 0xfb, 0x5b, 0xcb, 0x3e,
  0xbc, 0x1d, 0x4d, 0xbe, 0x0d, 0xa5, 0x3b, 0xbd, 0x8d, 0x7b, 0xba, 0x3d,
  0x4e, 0x6b, 0xed, 0xbd, 0x31, 0xf4, 0xfe, 0xbd, 0xd7, 0x3c, 0x81, 0xbd,
  0xeb, 0x83, 0x13, 0x3e, 0x82, 0xe3, 0xf1, 0xbd, 0xb3, 0x26, 0x97, 0xbe,
  0xac, 0x11, 0x15, 0x3e, 0x58, 0x27, 0x1e, 0xbe, 0xdd, 0x5a, 0x44, 0x3b,
  0x5c, 0x90, 0x20, 0x3b, 0x7b, 0x02, 0x82, 0x3d, 0x1b, 0xb8, 0xb8, 0x3e,
  0xa3, 0x2f, 0xd5, 0x3e, 0x9f, 0x29, 0x15, 0x3c, 0x28, 0x7b, 0x30, 0x3e,
  0xa6, 0x66, 0xf1, 0x3e, 0x15, 0xd3, 0x7a, 0xbe, 0x3e, 0x5c, 0x13, 0x3f,
  0x78, 0x2e, 0x5c, 0x3e, 0x8c, 0x50, 0x87, 0xbd, 0x55, 0x30, 0xb7, 0x3d,
  0xfb, 0xc2, 0x10, 0xbe, 0xd6, 0x91, 0x02, 0x3e, 0x9b, 0x2a, 0xfa, 0x3d,
  0xda, 0x3a, 0xce, 0xbd, 0x32, 0xaf, 0x4d, 0x3c, 0x6e, 0x62, 0x46, 0x3e,
  0x45, 0x25, 0xee, 0x3e, 0xbd, 0xe7, 0xa3, 0x3e, 0xb3, 0x7b, 0xbe, 0x3e,
  0x9a, 0x40, 0x8b, 0x3e, 0xaf, 0x44, 0xf5, 0x3e, 0xac, 0x85, 0xe5, 0xbd,
  0x52, 0xb3, 0xf2, 0x3e, 0x3c, 0x7c, 0x70, 0x3d, 0xf5, 0x4d, 0xe9, 0x3b,
  0xbf, 0xee, 0x1c, 0xbe, 0x30, 0x2a, 0x29, 0x3e, 0xbf, 0x87, 0x4a, 0x3e,
  0x32, 0x23, 0x02, 0x3e, 0x4f, 0xcf, 0x0f, 0xbd, 0x5d, 0xf7, 0xe4, 0x3d,
  0x7f, 0x91, 0x02, 0x3e, 0x59, 0x52, 0xf2, 0x3e, 0x72, 0x52, 0x3e, 0x3d,
  0x69, 0xef, 0x42, 0x3e, 0x67, 0xf3, 0xc5, 0xbd, 0x7d, 0x0f, 0x10, 0xbe,
  0x0f, 0x7a, 0x06, 0x3d, 0xe5, 0xcc, 0xe1, 0x3d, 0x7f, 0x1e, 0xdb, 0xba,
  0xff, 0x2a, 0x1f, 0x3e, 0x2c, 0xab, 0xdb, 0xbd, 0x66, 0x75, 0x1e, 0x3d,
  0xc8, 0x94, 0x4a, 0x3e, 0x3c, 0xfb, 0xa0, 0xbd, 0x71, 0xe6, 0x8f, 0xbe,
  0x38, 0xfe, 0x19, 0x3e, 0x10, 0x64, 0x78, 0x3d, 0x07, 0xa6, 0x7a, 0x3d,
  0x14, 0xa9, 0x3c, 0xbe, 0x8c, 0xd0, 0x01, 0xbe, 0x84, 0x16, 0x4e, 0xbe,
  0x7e, 0x21, 0xff, 0xbd, 0x7e, 0x0a, 0xaa, 0x3b, 0x7b, 0x0e, 0x48, 0xbd,
  0x60, 0x2c, 0x22, 0xbd, 0x15, 0x65, 0xb6, 0x3c, 0x5f, 0x14, 0x01, 0x3e,
  0xe1, 0xfd, 0x70, 0x3e, 0xd2, 0x14, 0x16, 0xbe, 0x81, 0xc3, 0x87, 0xbc,
  0xd1, 0x87, 0x0d, 0xbe, 0xa4, 0xbe, 0xae, 0xbd, 0x5f, 0xbb, 0x96, 0xbd,
  0x46, 0xb0, 0x8c, 0x3e, 0x65, 0x27, 0x9e, 0xbd, 0x98, 0x92, 0x27, 0xbd,
  0x81, 0x4d, 0x58, 0xbe, 0xef, 0x20, 0xa5, 0x3d, 0x8e, 0x5e, 0x10, 0xbd,
  0x91, 0xcd, 0x69, 0xbd, 0x85, 0xd1, 0xcb, 0x3d, 0x1c, 0xcf, 0x0e, 0xbe,
  0xf4, 0xaa, 0x28, 0x3d, 0x45, 0xdc, 0x09, 0x3e, 0x08, 0xe2, 0xac, 0xbd,
  0xba, 0xa6, 0xed, 0x3d, 0x86, 0x6c, 0x73, 0x3c, 0x8d, 0x1b, 0xd3, 0xbd,
  0x66, 0x85, 0xa0, 0x3d, 0x23, 0x8b, 0xdf, 0x3b, 0xc1, 0x75, 0x45, 0xbd,
  0xc6, 0xa4, 0xa1, 0xbd, 0xef, 0x25, 0x9e, 0x3d, 0xd4, 0x78, 0x1d, 0xbd,
  0x85, 0xdc, 0x62, 0x3e, 0x53, 0x30, 0x3a, 0xbe, 0x1d, 0x79, 0x3f, 0x3d,
  0xf1, 0x64, 0xa7, 0xbd, 0x8e, 0x97, 0xa5, 0x3e, 0x0a, 0x4a, 0xf8, 0x3e,
  0x23, 0xce, 0x44, 0xbe, 0x33, 0x23, 0xd5, 0x3d, 0x2d, 0x0b, 0x82, 0x3e,
  0x22, 0x48, 0x25, 0xbf, 0x81, 0xd3, 0x88, 0x3e, 0x4a, 0x3e, 0xc2, 0xbe,
  0x8d, 0x0f, 0xc7, 0xbd, 0xf4, 0x80, 0x2a, 0xbe, 0xca, 0xa6, 0x90, 0x3b,
  0xc5, 0x0b, 0x01, 0x3e, 0x70, 0xdc, 0xc7, 0x3d, 0xe8, 0x34, 0x39, 0xbe,
  0xfc, 0xb0, 0xd3, 0xbc, 0xb0, 0xfd, 0x19, 0x3d, 0x25, 0x77, 0x14, 0x3e,
  0xfe, 0xcc, 0xd7, 0x3d, 0x1b, 0x7f, 0x93, 0x3d, 0x28, 0x8e, 0xc8, 0x3d,
  0x13, 0x73, 0x60, 0x3e, 0x3a, 0x07, 0x99, 0xbe, 0xc2, 0x3a, 0x75, 0x3d,
  0x4e, 0xd9, 0x0e, 0xbe, 0x28, 0x6b, 0x28, 0x3e, 0x3f, 0xfb, 0x5c, 0x3e,
  0xb4, 0x1e, 0x24, 0xbd, 0x36, 0xde, 0x65, 0x3c, 0xa7, 0x07, 0xa6, 0x3d,
  0x5a, 0x7c, 0x54, 0x3e, 0x97, 0xcf, 0x73, 0xbe, 0xc9, 0xf3, 0x7b, 0x3d,
  0xc8, 0xb3, 0x1f, 0x3d, 0xc9, 0x31, 0x08, 0xbe, 0xcc, 0xdc, 0xc2, 0x3d,
  0x37, 0x1c, 0x4d, 0x3b, 0x2f, 0x13, 0x4d, 0x3d, 0x9c, 0x7d, 0x8c, 0xbc,
  0x9e, 0x5e, 0xb3, 0xbc, 0x1e, 0x64, 0x01, 0x3e, 0xc6, 0x3d, 0x6f, 0x3e,
  0x69, 0xae, 0xbb, 0xbc, 0x64, 0x26, 0xfa, 0xbd, 0xcb, 0xe5, 0x9f, 0xbd,
  0xf6, 0x82, 0x34, 0xbc, 0x0b, 0xf1, 0x83, 0x3d, 0x32, 0x61, 0x09, 0x3e,
  0x3c, 0x52, 0xe5, 0x3d, 0xe0, 0xf4, 0x23, 0x3e, 0x97, 0x02, 0x1e, 0x3e,
  0x65, 0x96, 0xcb, 0xbc, 0xba, 0x27, 0x19, 0xbd, 0x09, 0x3b, 0x6d, 0x3d,
  0xfe, 0x61, 0x17, 0xbb, 0x3a, 0xad, 0x1a, 0x3e, 0xad, 0x68, 0x9e, 0xbd,
  0x2b, 0x96, 0x33, 0xbe, 0x79, 0x48, 0x37, 0xbe, 0x7e, 0x4d, 0xe9, 0x3d,
  0xda, 0x18, 0x10, 0xbe, 0xa1, 0x55, 0xfd, 0x3a, 0xd5, 0x69, 0xd1, 0x3d,
  0xec, 0x08, 0xee, 0xbc, 0xde, 0x75, 0xdd, 0x3d, 0x6b, 0x1d, 0xd0, 0x3c,
  0x6b, 0x03, 0xbf, 0x3d, 0x7a, 0x64, 0xa1, 0x3c, 0xc0, 0x4a, 0x02, 0xbe,
  0x18, 0xeb, 0xc4, 0xbc, 0x32, 0xce, 0x42, 0x3e, 0xdf, 0xf5, 0xd8, 0x3d,
  0xbc, 0xc7, 0x2c, 0xbe, 0x94, 0x4c, 0x8a, 0xbe, 0x31, 0x07, 0x3a, 0xbe,
  0x2b, 0xfe, 0xf0, 0xbd, 0x93, 0x28, 0x22, 0xbc, 0x48, 0x72, 0x95, 0xbd,
  0x83, 0x72, 0x3e, 0xbe, 0x3c, 0x52, 0x47, 0xbe, 0x9a, 0x91, 0x81, 0xbe,
  0xfc, 0xd2, 0x42, 0xbe, 0x21, 0xf8, 0x83, 0x3d, 0xd6, 0x3c, 0x08, 0xbe,
  0x39, 0x34, 0x2a, 0xbe, 0x67, 0x09, 0xb9, 0xbd, 0xae, 0x33, 0x93, 0x3d,
  0xf4, 0xc2, 0x6a, 0xbd, 0x40, 0x18, 0x9e, 0xbd, 0x53, 0x9c, 0x39, 0xbc,
  0x01, 0xf9, 0xa4, 0x3c, 0x14, 0xb6, 0x97, 0xbe, 0x07, 0x26, 0xa5, 0xbe,
  0x5d, 0x35, 0x4b, 0xbe, 0x53, 0x50, 0xa2, 0xbd, 0x2d, 0x41, 0x81, 0xbe,
  0x1f, 0x44, 0x78, 0xbe, 0x30, 0x45, 0x11, 0xbf, 0x4a, 0xed, 0xa5, 0xbe,
  0xeb, 0x98, 0x23, 0x3d, 0xe5, 0x1a, 0xa4, 0xbd, 0x61, 0xe6, 0x28, 0xbf,
  0x49, 0x56, 0xda, 0xbc, 0x51, 0xad, 0xc1, 0xbe, 0xf7, 0x45, 0x28, 0x3d,
  0xbc, 0xf3, 0x37, 0xba, 0xe3, 0xb6, 0x89, 0xbc, 0xe2, 0xd2, 0x44, 0xbe,
  0xcc, 0x90, 0x1b, 0xbe, 0xd1, 0x32, 0x96, 0xbe, 0xe3, 0xb6, 0x03, 0xbe,
  0x60, 0xd3, 0x08, 0xbe, 0x0a, 0xf3, 0x99, 0xbe, 0x66, 0x32, 0x8f, 0x3c,
  0xa8, 0x95, 0x61, 0xbe, 0x42, 0x77, 0xc4, 0xbd, 0x66, 0xa0, 0x74, 0xbe,
  0x38, 0xf1, 0x88, 0xbc, 0x8b, 0xdc, 0xf5, 0xb9, 0x88, 0xf7, 0x22, 0xbe,
  0xc8, 0xb9, 0x01, 0x3f, 0xd4, 0xf0, 0x3e, 0x3c, 0xd5, 0x65, 0xb2, 0xbd,
  0x12, 0xa8, 0x82, 0xbe, 0x55, 0x2c, 0xc4, 0xbc, 0xab, 0x3f, 0x27, 0x3e,
  0x6c, 0x6c, 0x3d, 0x3d, 0x15, 0xcb, 0x66, 0x3e, 0xe8, 0x97, 0xc8, 0xbd,
  0xe6, 0x84, 0x92, 0xbe, 0x53, 0xf3, 0x8b, 0xbd, 0x2b, 0xcf, 0x57, 0xbd,
  0x99, 0xe0, 0x44, 0xbe, 0x08, 0x25, 0xb7, 0x3d, 0xc8, 0x7b, 0x8d, 0xbe,
  0x85, 0xd5, 0x12, 0xbd, 0x6d, 0x7c, 0x3d, 0x3f, 0x8f, 0x87, 0xdb, 0x39,
  0x6d, 0x19, 0x9a, 0x3d, 0x6a, 0x32, 0x0b, 0xbe, 0x85, 0xc0, 0xfc, 0x3d,
  0xa0, 0xb9, 0x2a, 0xbe, 0x29, 0xd3, 0x80, 0x3e, 0x3b, 0x73, 0xd2, 0xbc,
  0x14, 0xc3, 0x1d, 0xbe, 0xf6, 0x3a, 0x09, 0xbe, 0xab, 0x92, 0xb9, 0xbd,
  0x19, 0x66, 0x9c, 0x3d, 0x91, 0xc9, 0x86, 0xbe, 0x58, 0xc6, 0xed, 0x3d,
  0x8b, 0x36, 0x84, 0xbd, 0x22, 0x65, 0x1b, 0xbe, 0x26, 0xe6, 0xcc, 0x3e,
  0x13, 0xcb, 0xe9, 0xbc, 0x82, 0x76, 0x80, 0x3e, 0x68, 0x63, 0xcf, 0x3d,
  0x15, 0x07, 0x91, 0x3e, 0x1f, 0x2b, 0x12, 0xbb, 0x89, 0x88, 0x70, 0x3e,
  0xac, 0x01, 0x45, 0xbd, 0xad, 0xaf, 0x20, 0xbe, 0x51, 0xfa, 0xc4, 0xbd,
  0x08, 0x00, 0x63, 0x3e, 0xf4, 0x37, 0xd9, 0x3d, 0xc3, 0x25, 0x91, 0x3e,
  0x14, 0x0c, 0x31, 0xbe, 0x63, 0xcf, 0x51, 0xbe, 0x38, 0xad, 0x95, 0xbd,
  0xa5, 0x85, 0x40, 0x3f, 0xc3, 0xce, 0x1b, 0xbe, 0x17, 0xd2, 0xb5, 0x3c,
  0xc4, 0x4f, 0x8d, 0x3e, 0x27, 0x13, 0x83, 0x3d, 0x4c, 0xb0, 0x91, 0xbd,
  0x0a, 0x83, 0xb3, 0x3d, 0x7b, 0xc4, 0xed, 0xbc, 0x59, 0xaf, 0x55, 0xbc,
  0x06, 0xd3, 0xa7, 0xbd, 0x5f, 0xff, 0xef, 0xbd, 0x70, 0xb9, 0x1e, 0x3d,
  0x0f, 0x6d, 0x9f, 0xbd, 0x86, 0x2d, 0x3b, 0xbe, 0x86, 0x45, 0x15, 0xbe,
  0x04, 0x19, 0x7d, 0x3d, 0x84, 0x19, 0x0b, 0x3f, 0x8a, 0xb0, 0x64, 0xbd,
  0x4f, 0xd3, 0xd7, 0x3c, 0xad, 0x95, 0xd2, 0xbd, 0xc0, 0x45, 0xf2, 0x3d,
  0x7b, 0x2e, 0x04, 0x3e, 0x15, 0x0a, 0x3a, 0xbe, 0xbd, 0xa5, 0x65, 0x3e,
  0x52, 0xf5, 0x9a, 0xbd, 0xff, 0x2d, 0xe2, 0xbd, 0xb8, 0xbd, 0x5d, 0xbe,
  0x9e, 0x8e, 0x02, 0x3d, 0x5c, 0x0f, 0xd7, 0xbd, 0x4c, 0x70, 0x68, 0xbe,
  0x8d, 0x14, 0x80, 0xbe, 0x6c, 0x99, 0x5f, 0x3d, 0x26, 0xb4, 0x04, 0x3f,
  0xee, 0xb5, 0x80, 0x3c, 0x61, 0xd0, 0xc5, 0x3d, 0xab, 0x83, 0x12, 0xbe,
  0xbf, 0xa5, 0x8f, 0xbd, 0xd2, 0x0c, 0x3a, 0x3e, 0x95, 0x22, 0x75, 0xbe,
  0x00, 0x3f, 0x06, 0x3d, 0xf0, 0xe1, 0xb9, 0xbd, 0x37, 0x2c, 0x3d, 0x3d,
  0x90, 0xac, 0x28, 0xbe, 0x80, 0x26, 0x69, 0xbe, 0x28, 0xc5, 0x09, 0xbe,
  0x14, 0xa2, 0xfc, 0xba, 0xb5, 0xed, 0xa5, 0xbe, 0x12, 0xf1, 0xb0, 0xbd,
  0xb2, 0xeb, 0xa2, 0x3e, 0x5a, 0x8d, 0x62, 0x3d, 0x42, 0xc2, 0xef, 0xbd,
  0x1b, 0x53, 0x60, 0xbc, 0xc5, 0xb2, 0x32, 0xbe, 0x19, 0x05, 0x2b, 0xbb,
  0x7f, 0x20, 0x1b, 0xbe, 0x0d, 0xf6, 0xc2, 0x3d, 0x48, 0xaa, 0x0f, 0xbe,
  0xed, 0x0e, 0x2b, 0xbd, 0x9c, 0x2d, 0xfd, 0xbd, 0x4c, 0x4c, 0x2a, 0xbe,
  0xec, 0x4f, 0xf1, 0xbd, 0x96, 0xb1, 0xb3, 0xbd, 0xee, 0x2b, 0xe4, 0xba,
  0x60, 0x55, 0x80, 0x3c, 0x91, 0x0a, 0x55, 0xbe, 0xa6, 0x5e, 0x80, 0x3d,
  0xcd, 0xe4, 0xf2, 0xbc, 0xc8, 0x37, 0x0f, 0xbd, 0x22, 0x66, 0x92, 0x3b,
  0x4a, 0x63, 0x4c, 0xbd, 0x32, 0xbd, 0x1f, 0xbe, 0xf7, 0x09, 0xe8, 0x3d,
  0x7b, 0x4a, 0x05, 0xbe, 0xb1, 0x9b, 0xe2, 0xbd, 0x6b, 0xed, 0x85, 0x3e,
  0xf3, 0xdb, 0x07, 0xbe, 0x4d, 0xd5, 0x95, 0xbd, 0x95, 0x07, 0x0a, 0xbe,
  0x6e, 0x27, 0x5a, 0xbe, 0x7e, 0x25, 0xfb, 0xbd, 0x5e, 0x16, 0x34, 0x3e,
  0x9d, 0x5a, 0xfb, 0xbc, 0x8f, 0x22, 0x25, 0x3e, 0xbb, 0x2f, 0x4a, 0x3e,
  0x44, 0xd6, 0x18, 0x3e, 0xf9, 0x31, 0x79, 0x3c, 0x8b, 0x89, 0xa2, 0xbe,
  0x30, 0xef, 0x11, 0x3c, 0x64, 0xbe, 0x57, 0xbd, 0x95, 0x76, 0x10, 0xbe,
  0x33, 0x76, 0x3c, 0x3e, 0xe6, 0x8e, 0x52, 0xbe, 0xf9, 0xc7, 0xc7, 0xbc,
  0x18, 0xf1, 0x89, 0xbd, 0xcc, 0x9b, 0xe9, 0xbd, 0x6f, 0xa5, 0xc0, 0x3c,
  0xd8, 0x59, 0x96, 0x3d, 0xc6, 0xf3, 0x62, 0xbe, 0x43, 0x91, 0x68, 0x3d,
  0x08, 0x66, 0x8f, 0xbc, 0x44, 0x05, 0x1d, 0xbd, 0x8a, 0x62, 0x92, 0x3d,
  0xcf, 0x46, 0x0f, 0xbe, 0x43, 0x65, 0x54, 0x3e, 0x00, 0x38, 0xf3, 0xbd,
  0x29, 0x92, 0x06, 0xbe, 0xdc, 0xc1, 0x14, 0x3d, 0x1e, 0xdc, 0x54, 0xbd,
  0x4b, 0x7e, 0xf9, 0xbd, 0x5e, 0xdb, 0x60, 0xbd, 0x7e, 0xe7, 0x48, 0xbe,
  0x0f, 0x38, 0x23, 0x3c, 0x0c, 0xe2, 0xff, 0xbe, 0xdc, 0xed, 0x0c, 0x3e,
  0x1b, 0xaf, 0x24, 0xbc, 0x2a, 0x2d, 0x72, 0x3d, 0xc2, 0x79, 0xed, 0x3d,
  0x6f, 0xd1, 0x6a, 0xbd, 0x2c, 0x3c, 0x0b, 0x3d, 0xbd, 0xe7, 0x71, 0x3e,
  0xa1, 0x87, 0x12, 0xbd, 0x97, 0xbd, 0x1b, 0x3e, 0xe9, 0x3a, 0x95, 0x3d,
  0x9f, 0xae, 0x81, 0xbd, 0x0f, 0xaf, 0xaa, 0xbd, 0xa8, 0xa8, 0x58, 0x3e,
  0x17, 0xbd, 0x79, 0xbe, 0x06, 0x65, 0x89, 0x3e, 0xe3, 0x81, 0xd6, 0xbd,
  0x1e, 0x0f, 0xb4, 0x3e, 0x1a, 0xcc, 0xa0, 0x3e, 0x10, 0x7e, 0xc4, 0x3e,
  0x8f, 0xec, 0x9b, 0x3d, 0xf9, 0x56, 0x19, 0xbe, 0x9b, 0x8a, 0xc3, 0x3e,
  0x42, 0x15, 0x76, 0x3e, 0x46, 0xe9, 0xf3, 0x3d, 0x9f, 0xf3, 0x9c, 0x3d,
  0xc1, 0x4c, 0x09, 0xbe, 0x1d, 0xd3, 0xbe, 0xbd, 0x9f, 0x06, 0xcf, 0xbd,
  0xf8, 0x36, 0x78, 0x3e, 0xe1, 0x98, 0x4a, 0xbe, 0x37, 0x02, 0x97, 0x3d,
  0xe3, 0xb6, 0x86, 0xbe, 0xb9, 0x5f, 0x91, 0x3e, 0xcf, 0x7e, 0x59, 0x3e,
  0xfd, 0xa3, 0x88, 0x3d, 0x03, 0x78, 0xdd, 0x3d, 0xa9, 0x0e, 0x40, 0xbe,
  0x02, 0x2a, 0x5f, 0xbc, 0x87, 0x23, 0xbe, 0x3d, 0xdd, 0x83, 0x05, 0x3e,
  0x9a, 0xea, 0x8d, 0x3e, 0x60, 0xec, 0x95, 0xbe, 0x75, 0x4d, 0xca, 0x3d,
  0xab, 0xc6, 0xc3, 0xbd, 0x2b, 0xdd, 0xdb, 0xbd, 0x68, 0x08, 0xa1, 0x3d,
  0xbf, 0xee, 0x05, 0x3f, 0x90, 0x36, 0x03, 0xbe, 0x47, 0x9f, 0xcd, 0xbd,
  0xe6, 0x68, 0x3d, 0xbe, 0xf3, 0x45, 0x01, 0xbe, 0xd0, 0x66, 0x35, 0xbe,
  0x72, 0x3b, 0xf2, 0x3c, 0xea, 0xbe, 0x4a, 0x3e, 0x42, 0xae, 0xf4, 0x3b,
  0x37, 0x27, 0xb3, 0x3d, 0x86, 0xf8, 0xaa, 0x3e, 0x6d, 0x37, 0x80, 0x3e,
  0x24, 0x69, 0x61, 0xbe, 0x7c, 0x6c, 0xb8, 0x3d, 0x2b, 0xaa, 0x9a, 0x3e,
  0x5e, 0x33, 0x3f, 0xbe, 0x27, 0xf7, 0x98, 0x3c, 0x0b, 0x90, 0xa7, 0xbe,
  0x94, 0x9e, 0xb0, 0x3d, 0xd4, 0x6f, 0x24, 0x3d, 0x23, 0x10, 0x5a, 0xbc,
  0xde, 0x38, 0x50, 0x3d, 0x63, 0x58, 0x7d, 0x3e, 0xaa, 0x51, 0x77, 0xbd,
  0x2d, 0x65, 0x44, 0xbe, 0x59, 0x18, 0xac, 0x3c, 0x87, 0xda, 0x1e, 0x3e,
  0x99, 0x6e, 0xdb, 0x3c, 0xf5, 0xf8, 0x72, 0xbd, 0xa8, 0xc1, 0x0b, 0x3e,
  0x7c, 0x96, 0x18, 0x3e, 0xe9, 0xd1, 0xc4, 0xbe, 0xd7, 0x2c, 0x91, 0x3e,
  0x6a, 0x6a, 0xf5, 0xbd, 0xe6, 0xd1, 0x55, 0xbe, 0x95, 0x19, 0x26, 0x3e,
  0x6b, 0xf8, 0x40, 0xbd, 0x4f, 0x2e, 0x27, 0xbe, 0x89, 0x06, 0xd7, 0xbd,
  0x09, 0xe2, 0xcb, 0x3d, 0x7b, 0x68, 0x6d, 0x3d, 0xb9, 0xa0, 0xee, 0xbb,
  0xe8, 0xbb, 0x09, 0x3e, 0x18, 0xd2, 0x29, 0x3e, 0x5a, 0x49, 0x58, 0x3e,
  0xad, 0x9a, 0x06, 0x39, 0x88, 0xee, 0xbf, 0x3c, 0x53, 0xeb, 0x2e, 0xbe,
  0x11, 0x70, 0x37, 0x3e, 0xca, 0x21, 0x1b, 0x3d, 0x64, 0x1d, 0xc2, 0xbd,
  0xb3, 0xbc, 0x80, 0xba, 0x08, 0x04, 0x9d, 0xbd, 0xb6, 0xd0, 0x86, 0xbe,
  0x2c, 0xff, 0x29, 0xbe, 0x93, 0x50, 0x18, 0x3e, 0x01, 0x21, 0x9e, 0xbe,
  0x25, 0x42, 0x99, 0xbd, 0x32, 0x38, 0x4d, 0x3d, 0xf5, 0x47, 0x55, 0x3e,
  0x36, 0x14, 0xb7, 0x3c, 0xf1, 0x23, 0x5f, 0xbd, 0xfd, 0x99, 0x2a, 0xbe,
  0xe4, 0x9f, 0x15, 0x3e, 0x62, 0x0e, 0xe9, 0x3d, 0xa7, 0x30, 0x37, 0xbe,
  0x0b, 0x37, 0x4b, 0xbe, 0x41, 0xef, 0x89, 0x3d, 0x07, 0x95, 0x16, 0x3e,
  0x08, 0xe4, 0x4a, 0x3a, 0xbd, 0x8d, 0x50, 0x3e, 0x4c, 0x64, 0x0c, 0xbe,
  0x82, 0x5a, 0x22, 0x3c, 0xba, 0x9e, 0x1e, 0x3e, 0xf5, 0xdc, 0xb3, 0xbd,
  0x49, 0x7c, 0x92, 0xbd, 0xf8, 0x0f, 0x31, 0xbd, 0x41, 0xbd, 0xff, 0xbd,
  0xd4, 0x63, 0xcb, 0xbd, 0xd7, 0x26, 0x3c, 0x3e, 0xb4, 0x1a, 0x92, 0xbb,
  0x65, 0x0e, 0x06, 0xbd, 0xfa, 0x27, 0x11, 0xbd, 0x2f, 0x20, 0x84, 0x3d,
  0xdb, 0x80, 0x2d, 0x3e, 0x86, 0x32, 0xcd, 0xbd, 0xe4, 0xad, 0xd2, 0x3c,
  0xda, 0xb2, 0x5e, 0xbe, 0x53, 0x6d, 0x3c, 0x3d, 0x74, 0x70, 0x30, 0x3b,
  0xe9, 0xe7, 0x3e, 0xbe, 0xb1, 0x02, 0xd8, 0xbc, 0xb4, 0x9c, 0x7d, 0xbe,
  0xe7, 0xce, 0x0d, 0xbe, 0xb3, 0xac, 0x6f, 0xbe, 0x4d, 0x48, 0x4e, 0xbc,
  0x38, 0xe5, 0x9b, 0xbd, 0xf0, 0xb2, 0x6e, 0xbd, 0x39, 0x46, 0xb2, 0x3d,
  0x87, 0xc5, 0xdf, 0x3d, 0x9d, 0x46, 0xec, 0xbd, 0x9d, 0x25, 0x68, 0xbe,
  0x9c, 0x05, 0x77, 0xbe, 0x59, 0xd3, 0xec, 0xbd, 0xfa, 0xb7, 0x10, 0x3d,
  0x7a, 0x10, 0xad, 0xbe, 0x85, 0xcf, 0xe5, 0xbd, 0x9d, 0xc1, 0x57, 0x3d,
  0x3f, 0xce, 0x8d, 0x3d, 0x6e, 0x05, 0x48, 0xbe, 0x73, 0xfa, 0x8d, 0xbe,
  0xb7, 0xa9, 0x2c, 0xbe, 0x8d, 0x0b, 0x62, 0xbe, 0x08, 0xf2, 0xc5, 0x3d,
  0x66, 0xfd, 0xff, 0xff, 0x10, 0x00, 0x00, 0x00, 0x07, 0x00, 0x00, 0x00,
  0x14, 0x00, 0x00, 0x00, 0x2c, 0x00, 0x00, 0x00, 0x02, 0x00, 0x00, 0x00,
  0x10, 0x00, 0x00, 0x00, 0x70, 0x00, 0x00, 0x00, 0x17, 0x00, 0x00, 0x00,
  0x73, 0x65, 0x71, 0x75, 0x65, 0x6e, 0x74, 0x69, 0x61, 0x6c, 0x2f, 0x64,
  0x65, 0x6e, 0x73, 0x65, 0x2f, 0x4d, 0x61, 0x74, 0x4d, 0x75, 0x6c, 0x00,
  0xd0, 0xfc, 0xff, 0xff, 0xda, 0xfd, 0xff, 0xff, 0x04, 0x00, 0x00, 0x00,
  0x08, 0x00, 0x00, 0x00, 0xff, 0xff, 0xff, 0xff, 0x70, 0x00, 0x00, 0x00,
  0x00, 0x00, 0x0e, 0x00, 0x18, 0x00, 0x08, 0x00, 0x07, 0x00, 0x0c, 0x00,
  0x10, 0x00, 0x14, 0x00, 0x0e, 0x00, 0x00, 0x00, 0x00, 0x00, 0x00, 0x02,
  0x10, 0x00, 0x00, 0x00, 0x06, 0x00, 0x00, 0x00, 0x10, 0x00, 0x00, 0x00,
  0x2c, 0x00, 0x00, 0x00, 0x01, 0x00, 0x00, 0x00, 0x02, 0x00, 0x00, 0x00,
  0x18, 0x00, 0x00, 0x00, 0x73, 0x65, 0x71, 0x75, 0x65, 0x6e, 0x74, 0x69,
  0x61, 0x6c, 0x2f, 0x66, 0x6c, 0x61, 0x74, 0x74, 0x65, 0x6e, 0x2f, 0x43,
  0x6f, 0x6e, 0x73, 0x74, 0x00, 0x00, 0x00, 0x00, 0x38, 0xfd, 0xff, 0xff,
  0x42, 0xfe, 0xff, 0xff, 0x04, 0x00, 0x00, 0x00, 0x0c, 0x00, 0x00, 0x00,
  0x57, 0x8a, 0x96, 0x3f, 0x5f, 0x89, 0x5c, 0xbf, 0x53, 0x0b, 0x12, 0xbf,
  0x26, 0xfe, 0xff, 0xff, 0x10, 0x00, 0x00, 0x00, 0x05, 0x00, 0x00, 0x00,
  0x10, 0x00, 0x00, 0x00, 0x44, 0x00, 0x00, 0x00, 0x01, 0x00, 0x00, 0x00,
  0x03, 0x00, 0x00, 0x00, 0x32, 0x00, 0x00, 0x00, 0x73, 0x65, 0x71, 0x75,
  0x65, 0x6e, 0x74, 0x69, 0x61, 0x6c, 0x2f, 0x64, 0x65, 0x6e, 0x73, 0x65,
  0x5f, 0x31, 0x2f, 0x42, 0x69, 0x61, 0x73, 0x41, 0x64, 0x64, 0x2f, 0x52,
  0x65, 0x61, 0x64, 0x56, 0x61, 0x72, 0x69, 0x61, 0x62, 0x6c, 0x65, 0x4f,
  0x70, 0x2f, 0x72, 0x65, 0x73, 0x6f, 0x75, 0x72, 0x63, 0x65, 0x00, 0x00,
  0xa8, 0xfd, 0xff, 0xff, 0xb2, 0xfe, 0xff, 0xff, 0x04, 0x00, 0x00, 0x00,
  0x40, 0x00, 0x00, 0x00, 0xc7, 0x8e, 0x33, 0xbe, 0x5b, 0xba, 0x1b, 0x40,
  0xca, 0x85, 0x9a, 0xbe, 0x8e, 0x13, 0x1e, 0xbf, 0x38, 0x0f, 0xd0, 0xbf,
  0x8d, 0xf2, 0x74, 0xbf, 0x79, 0xc1, 0x0c, 0xbf, 0xaa, 0x97, 0x01, 0x40,
  0xfb, 0x39, 0x32, 0xbf, 0x01, 0xff, 0x64, 0xbe, 0x0b, 0xe0, 0xd1, 0xbd,
  0xde, 0x64, 0x28, 0x40, 0xea, 0xa9, 0xcf, 0xbd, 0x47, 0xf3, 0x32, 0x40,
  0xbd, 0x80, 0xc8, 0x3e, 0x25, 0xed, 0x1e, 0xbe, 0xca, 0xfe, 0xff, 0xff,
  0x10, 0x00, 0x00, 0x00, 0x04, 0x00, 0x00, 0x00, 0x10, 0x00, 0x00, 0x00,
  0x44, 0x00, 0x00, 0x00, 0x01, 0x00, 0x00, 0x00, 0x10, 0x00, 0x00, 0x00,
  0x30, 0x00, 0x00, 0x00, 0x73, 0x65, 0x71, 0x75, 0x65, 0x6e, 0x74, 0x69,
  0x61, 0x6c, 0x2f, 0x64, 0x65, 0x6e, 0x73, 0x65, 0x2f, 0x42, 0x69, 0x61,
  0x73, 0x41, 0x64, 0x64, 0x2f, 0x52, 0x65, 0x61, 0x64, 0x56, 0x61, 0x72,
  0x69, 0x61, 0x62, 0x6c, 0x65, 0x4f, 0x70, 0x2f, 0x72, 0x65, 0x73, 0x6f,
  0x75, 0x72, 0x63, 0x65, 0x00, 0x00, 0x00, 0x00, 0x4c, 0xfe, 0xff, 0xff,
  0x56, 0xff, 0xff, 0xff, 0x04, 0x00, 0x00, 0x00, 0x40, 0x00, 0x00, 0x00,
  0xcc, 0xb5, 0x4e, 0xbf, 0xea, 0x9c, 0x9c, 0xbf, 0x89, 0xfa, 0x58, 0xbf,
  0x89, 0x50, 0x0f, 0xbf, 0x63, 0xe9, 0x1b, 0xbe, 0x8d, 0xfd, 0x19, 0xbf,
  0x6f, 0x1b, 0x4a, 0xbf, 0xc6, 0x38, 0x08, 0xbf, 0x7c, 0x07, 0xd5, 0xbe,
  0x90, 0xab, 0xc7, 0xbd, 0x0f, 0x28, 0x70, 0x3f, 0x09, 0xff, 0x5b, 0x3e,
  0x95, 0x92, 0x7d, 0xbd, 0xfb, 0x59, 0x18, 0xbc, 0xd5, 0xad, 0x43, 0xbe,
  0xef, 0xbc, 0x72, 0x40, 0x6e, 0xff, 0xff, 0xff, 0x10, 0x00, 0x00, 0x00,
  0x03, 0x00, 0x00, 0x00, 0x10, 0x00, 0x00, 0x00, 0x48, 0x00, 0x00, 0x00,
  0x01, 0x00, 0x00, 0x00, 0x10, 0x00, 0x00, 0x00, 0x33, 0x00, 0x00, 0x00,
  0x73, 0x65, 0x71, 0x75, 0x65, 0x6e, 0x74, 0x69, 0x61, 0x6c, 0x2f, 0x63,
  0x6f, 0x6e, 0x76, 0x32, 0x64, 0x5f, 0x31, 0x2f, 0x42, 0x69, 0x61, 0x73,
  0x41, 0x64, 0x64, 0x2f, 0x52, 0x65, 0x61, 0x64, 0x56, 0x61, 0x72, 0x69,
  0x61, 0x62, 0x6c, 0x65, 0x4f, 0x70, 0x2f, 0x72, 0x65, 0x73, 0x6f, 0x75,
  0x72, 0x63, 0x65, 0x00, 0x04, 0x00, 0x06, 0x00, 0x04, 0x00, 0x00, 0x00,
  0x00, 0x00, 0x06, 0x00, 0x08, 0x00, 0x04, 0x00, 0x06, 0x00, 0x00, 0x00,
  0x04, 0x00, 0x00, 0x00, 0x20, 0x00, 0x00, 0x00, 0xc1, 0x31, 0x90, 0xbf,
  0x66, 0xd0, 0x86, 0x3b, 0x89, 0x29, 0x55, 0xbf, 0x30, 0x28, 0x10, 0xc0,
  0x07, 0x10, 0xd5, 0xbf, 0x43, 0x63, 0xe3, 0xbf, 0x96, 0x4b, 0x2e, 0xbf,
  0x45, 0x2e, 0x97, 0xbf, 0x00, 0x00, 0x0e, 0x00, 0x14, 0x00, 0x04, 0x00,
  0x00, 0x00, 0x08, 0x00, 0x0c, 0x00, 0x10, 0x00, 0x0e, 0x00, 0x00, 0x00,
  0x10, 0x00, 0x00, 0x00, 0x02, 0x00, 0x00, 0x00, 0x10, 0x00, 0x00, 0x00,
  0x44, 0x00, 0x00, 0x00, 0x01, 0x00, 0x00, 0x00, 0x08, 0x00, 0x00, 0x00,
  0x31, 0x00, 0x00, 0x00, 0x73, 0x65, 0x71, 0x75, 0x65, 0x6e, 0x74, 0x69,
  0x61, 0x6c, 0x2f, 0x63, 0x6f, 0x6e, 0x76, 0x32, 0x64, 0x2f, 0x42, 0x69,
  0x61, 0x73, 0x41, 0x64, 0x64, 0x2f, 0x52, 0x65, 0x61, 0x64, 0x56, 0x61,
  0x72, 0x69, 0x61, 0x62, 0x6c, 0x65, 0x4f, 0x70, 0x2f, 0x72, 0x65, 0x73,
  0x6f, 0x75, 0x72, 0x63, 0x65, 0x00, 0x00, 0x00, 0x90, 0xff, 0xff, 0xff,
  0x14, 0x00, 0x18, 0x00, 0x04, 0x00, 0x00, 0x00, 0x08, 0x00, 0x0c, 0x00,
  0x10, 0x00, 0x00, 0x00, 0x00, 0x00, 0x14, 0x00, 0x14, 0x00, 0x00, 0x00,
  0x14, 0x00, 0x00, 0x00, 0x01, 0x00, 0x00, 0x00, 0x20, 0x00, 0x00, 0x00,
  0x44, 0x00, 0x00, 0x00, 0x2c, 0x00, 0x00, 0x00, 0x04, 0x00, 0x00, 0x00,
  0x01, 0x00, 0x00, 0x00, 0x40, 0x00, 0x00, 0x00, 0x03, 0x00, 0x00, 0x00,
  0x01, 0x00, 0x00, 0x00, 0x0c, 0x00, 0x00, 0x00, 0x63, 0x6f, 0x6e, 0x76,
  0x32, 0x64, 0x5f, 0x69, 0x6e, 0x70, 0x75, 0x74, 0x00, 0x00, 0x00, 0x00,
  0x04, 0x00, 0x00, 0x00, 0xff, 0xff, 0xff, 0xff, 0x40, 0x00, 0x00, 0x00,
  0x03, 0x00, 0x00, 0x00, 0x01, 0x00, 0x00, 0x00, 0xfc, 0xff, 0xff, 0xff,
  0x04, 0x00, 0x04, 0x00, 0x04, 0x00, 0x00, 0x00
};
unsigned int model_tflite_len = 13052;