#include "magic_wand_model_data.h"

// We need to keep the data array aligned on some architectures.
#ifdef __has_attribute
#define HAVE_ATTRIBUTE(x) __has_attribute(x)
#else
#define HAVE_ATTRIBUTE(x) 0
#endif
#if HAVE_ATTRIBUTE(aligned) || (defined(__GNUC__) && !defined(__clang__))
#define DATA_ALIGN_ATTRIBUTE __attribute__((aligned(4)))
#else
#define DATA_ALIGN_ATTRIBUTE
#endif

const unsigned char g_magic_wand_model_data[] DATA_ALIGN_ATTRIBUTE = {
  0x1c, 0x00, 0x00, 0x00, 0x54, 0x46, 0x4c, 0x33, 0x14, 0x00, 0x20, 0x00,
  0x04, 0x00, 0x08, 0x00, 0x0c, 0x00, 0x10, 0x00, 0x14, 0x00, 0x00, 0x00,
  0x18, 0x00, 0x1c, 0x00, 0x14, 0x00, 0x00, 0x00, 0x03, 0x00, 0x00, 0x00,
  0x18, 0x00, 0x00, 0x00, 0x2c, 0x00, 0x00, 0x00, 0xd8, 0x00, 0x00, 0x00,
  0x2c, 0x00, 0x00, 0x00, 0x80, 0x00, 0x00, 0x00, 0x78, 0x00, 0x00, 0x00,
  0x05, 0x00, 0x00, 0x00, 0x28, 0x07, 0x00, 0x00, 0x44, 0x06, 0x00, 0x00,
  0xbc, 0x03, 0x00, 0x00, 0xf8, 0x02, 0x00, 0x00, 0xac, 0x01, 0x00, 0x00,
  0x01, 0x00, 0x00, 0x00, 0xd0, 0x00, 0x00, 0x00, 0x14, 0x00, 0x00, 0x00,
  0x98, 0x32, 0x00, 0x00, 0x94, 0x32, 0x00, 0x00, 0x8c, 0x31, 0x00, 0x00,
  0xd8, 0x30, 0x00, 0x00, 0x30, 0x30, 0x00, 0x00, 0xbc, 0x2f, 0x00, 0x00,
  0x50, 0x2f, 0x00, 0x00, 0x00, 0x13, 0x00, 0x00, 0xec, 0x11, 0x00, 0x00,
  0x10, 0x10, 0x00, 0x00, 0xb4, 0x07, 0x00, 0x00, 0x6c, 0x32, 0x00, 0x00,
  0x68, 0x32, 0x00, 0x00, 0x64, 0x32, 0x00, 0x00, 0x60, 0x32, 0x00, 0x00,
  0x5c, 0x32, 0x00, 0x00, 0x58, 0x32, 0x00, 0x00, 0x54, 0x32, 0x00, 0x00,
  0x50, 0x32, 0x00, 0x00, 0x3c, 0x00, 0x00, 0x00, 0x00, 0x00, 0x00, 0x00,
  0x01, 0x00, 0x00, 0x00, 0x0c, 0x00, 0x00, 0x00, 0x08, 0x00, 0x0c, 0x00,
  0x04, 0x00, 0x08, 0x00, 0x08, 0x00, 0x00, 0x00, 0x08, 0x00, 0x00, 0x00,
  0x13, 0x00, 0x00, 0x00, 0x13, 0x00, 0x00, 0x00, 0x6d, 0x69, 0x6e, 0x5f,
  0x72, 0x75, 0x6e, 0x74, 0x69, 0x6d, 0x65, 0x5f, 0x76, 0x65, 0x72, 0x73,
  0x69, 0x6f, 0x6e, 0x00, 0xfa, 0xce, 0xff, 0xff, 0x04, 0x00, 0x00, 0x00,
  0x10, 0x00, 0x00, 0x00, 0x31, 0x2e, 0x35, 0x2e, 0x30, 0x00, 0x00, 0x00,
  0x00, 0x00, 0x00, 0x00, 0x00, 0x00, 0x00, 0x00, 0x0f, 0x00, 0x00, 0x00,
  0x4d, 0x4c, 0x49, 0x52, 0x20, 0x43, 0x6f, 0x6e, 0x76, 0x65, 0x72, 0x74,
  0x65, 0x64, 0x2e, 0x00, 0x00, 0x00, 0x0e, 0x00, 0x18, 0x00, 0x04, 0x00,
  0x08, 0x00, 0x0c, 0x00, 0x10, 0x00, 0x14, 0x00, 0x0e, 0x00, 0x00, 0x00,
  0x14, 0x00, 0x00, 0x00, 0x5c, 0x00, 0x00, 0x00, 0x60, 0x00, 0x00, 0x00,
  0x64, 0x00, 0x00, 0x00, 0x84, 0x00, 0x00, 0x00, 0x12, 0x00, 0x00, 0x00,
  0x58, 0x31, 0x00, 0x00, 0xe8, 0x30, 0x00, 0x00, 0x44, 0x30, 0x00, 0x00,
  0x9c, 0x2f, 0x00, 0x00, 0xf4, 0x2e, 0x00, 0x00, 0x94, 0x2e, 0x00, 0x00,
  0x2c, 0x2e, 0x00, 0x00, 0xd8, 0x11, 0x00, 0x00, 0xbc, 0x10, 0x00, 0x00,
  0xe0, 0x0e, 0x00, 0x00, 0x0c, 0x06, 0x00, 0x00, 0x28, 0x05, 0x00, 0x00,
  0xe8, 0x03, 0x00, 0x00, 0x3c, 0x03, 0x00, 0x00, 0x98, 0x02, 0x00, 0x00,
  0xd4, 0x01, 0x00, 0x00, 0x10, 0x01, 0x00, 0x00, 0x84, 0x00, 0x00, 0x00,
  0x01, 0x00, 0x00, 0x00, 0x00, 0x00, 0x00, 0x00, 0x01, 0x00, 0x00, 0x00,
  0x11, 0x00, 0x00, 0x00, 0x08, 0x00, 0x00, 0x00, 0x74, 0x05, 0x00, 0x00,
  0x94, 0x04, 0x00, 0x00, 0x78, 0x03, 0x00, 0x00, 0xbc, 0x02, 0x00, 0x00,
  0x30, 0x02, 0x00, 0x00, 0x50, 0x01, 0x00, 0x00, 0xa8, 0x00, 0x00, 0x00,
  0x10, 0x00, 0x00, 0x00, 0x04, 0x00, 0x00, 0x00, 0x6d, 0x61, 0x69, 0x6e,
  0x00, 0x00, 0x00, 0x00, 0x7a, 0xff, 0xff, 0xff, 0x00, 0x00, 0x00, 0x09,
  0x04, 0x00, 0x00, 0x00, 0x1c, 0x00, 0x00, 0x00, 0x10, 0x00, 0x00, 0x00,
  0x04, 0x00, 0x00, 0x00, 0xf6, 0xcf, 0xff, 0xff, 0x00, 0x00, 0x80, 0x3f,
  0x01, 0x00, 0x00, 0x00, 0x11, 0x00, 0x00, 0x00, 0x01, 0x00, 0x00, 0x00,
  0x10, 0x00, 0x00, 0x00, 0xa0, 0xfa, 0xff, 0xff, 0x19, 0x00, 0x00, 0x00,
  0x00, 0x00, 0x00, 0x19, 0x01, 0x00, 0x00, 0x00, 0x84, 0xcf, 0xff, 0xff,
  0x14, 0x00, 0x00, 0x00, 0x12, 0x00, 0x00, 0x00, 0x18, 0x00, 0x00, 0x00,
  0x30, 0x00, 0x00, 0x00, 0x20, 0x00, 0x00, 0x00, 0x02, 0x00, 0x00, 0x00,
  0x01, 0x00, 0x00, 0x00, 0x03, 0x00, 0x00, 0x00, 0x08, 0x00, 0x00, 0x00,
  0x49, 0x64, 0x65, 0x6e, 0x74, 0x69, 0x74, 0x79, 0x00, 0x00, 0x00, 0x00,
  0x02, 0x00, 0x00, 0x00, 0xff, 0xff, 0xff, 0xff, 0x03, 0x00, 0x00, 0x00,
  0x68, 0xd0, 0xff, 0xff, 0x00, 0x00, 0x0e, 0x00, 0x18, 0x00, 0x08, 0x00,
  0x0c, 0x00, 0x10, 0x00, 0x07, 0x00, 0x14, 0x00, 0x0e, 0x00, 0x00, 0x00,
  0x00, 0x00, 0x00, 0x08, 0x03, 0x00, 0x00, 0x00, 0x18, 0x00, 0x00, 0x00,
  0x0c, 0x00, 0x00, 0x00, 0x04, 0x00, 0x00, 0x00, 0x84, 0xcf, 0xff, 0xff,
  0x01, 0x00, 0x00, 0x00, 0x10, 0x00, 0x00, 0x00, 0x03, 0x00, 0x00, 0x00,
  0x0f, 0x00, 0x00, 0x00, 0x07, 0x00, 0x00, 0x00, 0x04, 0x00, 0x00, 0x00,
  0x0c, 0xd0, 0xff, 0xff, 0x14, 0x00, 0x00, 0x00, 0x11, 0x00, 0x00, 0x00,
  0x18, 0x00, 0x00, 0x00, 0x5c, 0x00, 0x00, 0x00, 0x4c, 0x00, 0x00, 0x00,
  0x02, 0x00, 0x00, 0x00, 0x01, 0x00, 0x00, 0x00, 0x03, 0x00, 0x00, 0x00,
  0x34, 0x00, 0x00, 0x00, 0x73, 0x65, 0x71, 0x75, 0x65, 0x6e, 0x74, 0x69,
  0x61, 0x6c, 0x2f, 0x64, 0x65, 0x6e, 0x73, 0x65, 0x5f, 0x31, 0x2f, 0x4d,
  0x61, 0x74, 0x4d, 0x75, 0x6c, 0x3b, 0x73, 0x65, 0x71, 0x75, 0x65, 0x6e,
  0x74, 0x69, 0x61, 0x6c, 0x2f, 0x64, 0x65, 0x6e, 0x73, 0x65, 0x5f, 0x31,
  0x2f, 0x42, 0x69, 0x61, 0x73, 0x41, 0x64, 0x64, 0x00, 0x00, 0x00, 0x00,
  0x02, 0x00, 0x00, 0x00, 0xff, 0xff, 0xff, 0xff, 0x03, 0x00, 0x00, 0x00,
  0x0c, 0xd0, 0xff, 0xff, 0xda, 0xfc, 0xff, 0xff, 0x00, 0x00, 0x00, 0x08,
  0x03, 0x00, 0x00, 0x00, 0x24, 0x00, 0x00, 0x00, 0x18, 0x00, 0x00, 0x00,
  0x0c, 0x00, 0x00, 0x00, 0x00, 0x00, 0x06, 0x00, 0x08, 0x00, 0x07, 0x00,
  0x06, 0x00, 0x00, 0x00, 0x00, 0x00, 0x00, 0x01, 0x01, 0x00, 0x00, 0x00,
  0x0f, 0x00, 0x00, 0x00, 0x03, 0x00, 0x00, 0x00, 0x0e, 0x00, 0x00, 0x00,
  0x06, 0x00, 0x00, 0x00, 0x03, 0x00, 0x00, 0x00, 0xe8, 0xfb, 0xff, 0xff,
  0x09, 0x00, 0x00, 0x00, 0x00, 0x00, 0x00, 0x09, 0x01, 0x00, 0x00, 0x00,
  0xcc, 0xd0, 0xff, 0xff, 0x14, 0x00, 0x00, 0x00, 0x10, 0x00, 0x00, 0x00,
  0x18, 0x00, 0x00, 0x00, 0x6c, 0x00, 0x00, 0x00, 0x5c, 0x00, 0x00, 0x00,
  0x02, 0x00, 0x00, 0x00, 0x01, 0x00, 0x00, 0x00, 0x10, 0x00, 0x00, 0x00,
  0x46, 0x00, 0x00, 0x00, 0x73, 0x65, 0x71, 0x75, 0x65, 0x6e, 0x74, 0x69,
  0x61, 0x6c, 0x2f, 0x64, 0x65, 0x6e, 0x73, 0x65, 0x2f, 0x4d, 0x61, 0x74,
  0x4d, 0x75, 0x6c, 0x3b, 0x73, 0x65, 0x71, 0x75, 0x65, 0x6e, 0x74, 0x69,
  0x61, 0x6c, 0x2f, 0x64, 0x65, 0x6e, 0x73, 0x65, 0x2f, 0x52, 0x65, 0x6c,
  0x75, 0x3b, 0x73, 0x65, 0x71, 0x75, 0x65, 0x6e, 0x74, 0x69, 0x61, 0x6c,
  0x2f, 0x64, 0x65, 0x6e, 0x73, 0x65, 0x2f, 0x42, 0x69, 0x61, 0x73, 0x41,
  0x64, 0x64, 0x00, 0x00, 0x02, 0x00, 0x00, 0x00, 0xff, 0xff, 0xff, 0xff,
  0x10, 0x00, 0x00, 0x00, 0xec, 0xd1, 0xff, 0xff, 0x00, 0x00, 0x0a, 0x00,
  0x10, 0x00, 0x04, 0x00, 0x08, 0x00, 0x0c, 0x00, 0x0a, 0x00, 0x00, 0x00,
  0x02, 0x00, 0x00, 0x00, 0x10, 0x00, 0x00, 0x00, 0x04, 0x00, 0x00, 0x00,
  0x01, 0x00, 0x00, 0x00, 0x0e, 0x00, 0x00, 0x00, 0x02, 0x00, 0x00, 0x00,
  0x0d, 0x00, 0x00, 0x00, 0x05, 0x00, 0x00, 0x00, 0xa8, 0xfc, 0xff, 0xff,
  0x16, 0x00, 0x00, 0x00, 0x00, 0x00, 0x00, 0x16, 0x01, 0x00, 0x00, 0x00,
  0x8c, 0xd1, 0xff, 0xff, 0x14, 0x00, 0x00, 0x00, 0x0f, 0x00, 0x00, 0x00,
  0x18, 0x00, 0x00, 0x00, 0x40, 0x00, 0x00, 0x00, 0x30, 0x00, 0x00, 0x00,
  0x02, 0x00, 0x00, 0x00, 0x01, 0x00, 0x00, 0x00, 0x70, 0x00, 0x00, 0x00,
  0x1a, 0x00, 0x00, 0x00, 0x73, 0x65, 0x71, 0x75, 0x65, 0x6e, 0x74, 0x69,
  0x61, 0x6c, 0x2f, 0x66, 0x6c, 0x61, 0x74, 0x74, 0x65, 0x6e, 0x2f, 0x52,
  0x65, 0x73, 0x68, 0x61, 0x70, 0x65, 0x00, 0x00, 0x02, 0x00, 0x00, 0x00,
  0xff, 0xff, 0xff, 0xff, 0x70, 0x00, 0x00, 0x00, 0x70, 0xd1, 0xff, 0xff,
  0x3e, 0xfe, 0xff, 0xff, 0x00, 0x00, 0x00, 0x05, 0x01, 0x00, 0x00, 0x00,
  0x38, 0x00, 0x00, 0x00, 0x2c, 0x00, 0x00, 0x00, 0x14, 0x00, 0x00, 0x00,
  0x00, 0x00, 0x0e, 0x00, 0x14, 0x00, 0x00, 0x00, 0x10, 0x00, 0x0c, 0x00,
  0x08, 0x00, 0x04, 0x00, 0x0e, 0x00, 0x00, 0x00, 0x03, 0x00, 0x00, 0x00,
  0x01, 0x00, 0x00, 0x00, 0x03, 0x00, 0x00, 0x00, 0x01, 0x00, 0x00, 0x00,
  0x01, 0x00, 0x00, 0x00, 0x0d, 0x00, 0x00, 0x00, 0x01, 0x00, 0x00, 0x00,
  0x0c, 0x00, 0x00, 0x00, 0x2c, 0xd2, 0xff, 0xff, 0x14, 0x00, 0x00, 0x00,
  0x0e, 0x00, 0x00, 0x00, 0x20, 0x00, 0x00, 0x00, 0x58, 0x00, 0x00, 0x00,
  0x40, 0x00, 0x00, 0x00, 0x04, 0x00, 0x00, 0x00, 0x01, 0x00, 0x00, 0x00,
  0x07, 0x00, 0x00, 0x00, 0x01, 0x00, 0x00, 0x00, 0x10, 0x00, 0x00, 0x00,
  0x22, 0x00, 0x00, 0x00, 0x73, 0x65, 0x71, 0x75, 0x65, 0x6e, 0x74, 0x69,
  0x61, 0x6c, 0x2f, 0x6d, 0x61, 0x78, 0x5f, 0x70, 0x6f, 0x6f, 0x6c, 0x69,
  0x6e, 0x67, 0x32, 0x64, 0x5f, 0x31, 0x2f, 0x4d, 0x61, 0x78, 0x50, 0x6f,
  0x6f, 0x6c, 0x00, 0x00, 0x04, 0x00, 0x00, 0x00, 0xff, 0xff, 0xff, 0xff,
  0x07, 0x00, 0x00, 0x00, 0x01, 0x00, 0x00, 0x00, 0x10, 0x00, 0x00, 0x00,
  0x28, 0xd2, 0xff, 0xff, 0x1a, 0xfe, 0xff, 0xff, 0x00, 0x00, 0x00, 0x01,
  0x24, 0x00, 0x00, 0x00, 0x18, 0x00, 0x00, 0x00, 0x04, 0x00, 0x00, 0x00,
  0x0c, 0xfe, 0xff, 0xff, 0x01, 0x00, 0x00, 0x00, 0x01, 0x00, 0x00, 0x00,
  0x00, 0x00, 0x00, 0x01, 0x01, 0x00, 0x00, 0x00, 0x0c, 0x00, 0x00, 0x00,
  0x03, 0x00, 0x00, 0x00, 0x0b, 0x00, 0x00, 0x00, 0x09, 0x00, 0x00, 0x00,
  0x02, 0x00, 0x00, 0x00, 0xd4, 0xd2, 0xff, 0xff, 0x14, 0x00, 0x00, 0x00,
  0x0d, 0x00, 0x00, 0x00, 0x20, 0x00, 0x00, 0x00, 0xb8, 0x00, 0x00, 0x00,
  0xa0, 0x00, 0x00, 0x00, 0x04, 0x00, 0x00, 0x00, 0x01, 0x00, 0x00, 0x00,
  0x15, 0x00, 0x00, 0x00, 0x01, 0x00, 0x00, 0x00, 0x10, 0x00, 0x00, 0x00,
  0x83, 0x00, 0x00, 0x00, 0x73, 0x65, 0x71, 0x75, 0x65, 0x6e, 0x74, 0x69,
  0x61, 0x6c, 0x2f, 0x63, 0x6f, 0x6e, 0x76, 0x32, 0x64, 0x5f, 0x31, 0x2f,
  0x52, 0x65, 0x6c, 0x75, 0x3b, 0x73, 0x65, 0x71, 0x75, 0x65, 0x6e, 0x74,
  0x69, 0x61, 0x6c, 0x2f, 0x63, 0x6f, 0x6e, 0x76, 0x32, 0x64, 0x5f, 0x31,
  0x2f, 0x42, 0x69, 0x61, 0x73, 0x41, 0x64, 0x64, 0x3b, 0x73, 0x65, 0x71,
  0x75, 0x65, 0x6e, 0x74, 0x69, 0x61, 0x6c, 0x2f, 0x63, 0x6f, 0x6e, 0x76,
  0x32, 0x64, 0x5f, 0x31, 0x2f, 0x43, 0x6f, 0x6e, 0x76, 0x32, 0x44, 0x3b,
  0x73, 0x65, 0x71, 0x75, 0x65, 0x6e, 0x74, 0x69, 0x61, 0x6c, 0x2f, 0x63,
  0x6f, 0x6e, 0x76, 0x32, 0x64, 0x5f, 0x31, 0x2f, 0x42, 0x69, 0x61, 0x73,
  0x41, 0x64, 0x64, 0x2f, 0x52, 0x65, 0x61, 0x64, 0x56, 0x61, 0x72, 0x69,
  0x61, 0x62, 0x6c, 0x65, 0x4f, 0x70, 0x2f, 0x72, 0x65, 0x73, 0x6f, 0x75,
  0x72, 0x63, 0x65, 0x00, 0x04, 0x00, 0x00, 0x00, 0xff, 0xff, 0xff, 0xff,
  0x15, 0x00, 0x00, 0x00, 0x01, 0x00, 0x00, 0x00, 0x10, 0x00, 0x00, 0x00,
  0x40, 0xd4, 0xff, 0xff, 0x00, 0x00, 0x0e, 0x00, 0x1a, 0x00, 0x08, 0x00,
  0x0c, 0x00, 0x10, 0x00, 0x07, 0x00, 0x14, 0x00, 0x0e, 0x00, 0x00, 0x00,
  0x00, 0x00, 0x00, 0x05, 0x01, 0x00, 0x00, 0x00, 0x3c, 0x00, 0x00, 0x00,
  0x30, 0x00, 0x00, 0x00, 0x14, 0x00, 0x00, 0x00, 0x00, 0x00, 0x0e, 0x00,
  0x18, 0x00, 0x17, 0x00, 0x10, 0x00, 0x0c, 0x00, 0x08, 0x00, 0x04, 0x00,
  0x0e, 0x00, 0x00, 0x00, 0x03, 0x00, 0x00, 0x00, 0x03, 0x00, 0x00, 0x00,
  0x03, 0x00, 0x00, 0x00, 0x03, 0x00, 0x00, 0x00, 0x00, 0x00, 0x00, 0x01,
  0x01, 0x00, 0x00, 0x00, 0x0b, 0x00, 0x00, 0x00, 0x01, 0x00, 0x00, 0x00,
  0x0a, 0x00, 0x00, 0x00, 0x2c, 0xff, 0xff, 0xff, 0x11, 0x00, 0x00, 0x00,
  0x00, 0x00, 0x00, 0x11, 0x01, 0x00, 0x00, 0x00, 0x10, 0xd4, 0xff, 0xff,
  0x14, 0x00, 0x00, 0x00, 0x0c, 0x00, 0x00, 0x00, 0x20, 0x00, 0x00, 0x00,
  0x58, 0x00, 0x00, 0x00, 0x40, 0x00, 0x00, 0x00, 0x04, 0x00, 0x00, 0x00,
  0x01, 0x00, 0x00, 0x00, 0x15, 0x00, 0x00, 0x00, 0x01, 0x00, 0x00, 0x00,
  0x08, 0x00, 0x00, 0x00, 0x20, 0x00, 0x00, 0x00, 0x73, 0x65, 0x71, 0x75,
  0x65, 0x6e, 0x74, 0x69, 0x61, 0x6c, 0x2f, 0x6d, 0x61, 0x78, 0x5f, 0x70,
  0x6f, 0x6f, 0x6c, 0x69, 0x6e, 0x67, 0x32, 0x64, 0x2f, 0x4d, 0x61, 0x78,
  0x50, 0x6f, 0x6f, 0x6c, 0x00, 0x00, 0x00, 0x00, 0x04, 0x00, 0x00, 0x00,
  0xff, 0xff, 0xff, 0xff, 0x15, 0x00, 0x00, 0x00, 0x01, 0x00, 0x00, 0x00,
  0x08, 0x00, 0x00, 0x00, 0x1c, 0xd5, 0xff, 0xff, 0x00, 0x00, 0x0e, 0x00,
  0x14, 0x00, 0x00, 0x00, 0x08, 0x00, 0x0c, 0x00, 0x07, 0x00, 0x10, 0x00,
  0x0e, 0x00, 0x00, 0x00, 0x00, 0x00, 0x00, 0x01, 0x30, 0x00, 0x00, 0x00,
  0x24, 0x00, 0x00, 0x00, 0x10, 0x00, 0x00, 0x00, 0x0c, 0x00, 0x10, 0x00,
  0x00, 0x00, 0x04, 0x00, 0x08, 0x00, 0x0f, 0x00, 0x0c, 0x00, 0x00, 0x00,
  0x01, 0x00, 0x00, 0x00, 0x01, 0x00, 0x00, 0x00, 0x00, 0x00, 0x00, 0x01,
  0x01, 0x00, 0x00, 0x00, 0x0a, 0x00, 0x00, 0x00, 0x03, 0x00, 0x00, 0x00,
  0x00, 0x00, 0x00, 0x00, 0x08, 0x00, 0x00, 0x00, 0x01, 0x00, 0x00, 0x00,
  0x0c, 0x00, 0x10, 0x00, 0x0b, 0x00, 0x00, 0x00, 0x0c, 0x00, 0x04, 0x00,
  0x0c, 0x00, 0x00, 0x00, 0x03, 0x00, 0x00, 0x00, 0x00, 0x00, 0x00, 0x03,
  0x01, 0x00, 0x00, 0x00, 0xf0, 0xd4, 0xff, 0xff, 0x14, 0x00, 0x00, 0x00,
  0x0b, 0x00, 0x00, 0x00, 0x20, 0x00, 0x00, 0x00, 0xb0, 0x00, 0x00, 0x00,
  0x98, 0x00, 0x00, 0x00, 0x04, 0x00, 0x00, 0x00, 0x01, 0x00, 0x00, 0x00,
  0x40, 0x00, 0x00, 0x00, 0x03, 0x00, 0x00, 0x00, 0x08, 0x00, 0x00, 0x00,
  0x7b, 0x00, 0x00, 0x00, 0x73, 0x65, 0x71, 0x75, 0x65, 0x6e, 0x74, 0x69,
  0x61, 0x6c, 0x2f, 0x63, 0x6f, 0x6e, 0x76, 0x32, 0x64, 0x2f, 0x52, 0x65,
  0x6c, 0x75, 0x3b, 0x73, 0x65, 0x71, 0x75, 0x65, 0x6e, 0x74, 0x69, 0x61,
  0x6c, 0x2f, 0x63, 0x6f, 0x6e, 0x76, 0x32, 0x64, 0x2f, 0x42, 0x69, 0x61,
  0x73, 0x41, 0x64, 0x64, 0x3b, 0x73, 0x65, 0x71, 0x75, 0x65, 0x6e, 0x74,
  0x69, 0x61, 0x6c, 0x2f, 0x63, 0x6f, 0x6e, 0x76, 0x32, 0x64, 0x2f, 0x43,
  0x6f, 0x6e, 0x76, 0x32, 0x44, 0x3b, 0x73, 0x65, 0x71, 0x75, 0x65, 0x6e,
  0x74, 0x69, 0x61, 0x6c, 0x2f, 0x63, 0x6f, 0x6e, 0x76, 0x32, 0x64, 0x2f,
  0x42, 0x69, 0x61, 0x73, 0x41, 0x64, 0x64, 0x2f, 0x52, 0x65, 0x61, 0x64,
  0x56, 0x61, 0x72, 0x69, 0x61, 0x62, 0x6c, 0x65, 0x4f, 0x70, 0x2f, 0x72,
  0x65, 0x73, 0x6f, 0x75, 0x72, 0x63, 0x65, 0x00, 0x04, 0x00, 0x00, 0x00,
  0xff, 0xff, 0xff, 0xff, 0x40, 0x00, 0x00, 0x00, 0x03, 0x00, 0x00, 0x00,
  0x08, 0x00, 0x00, 0x00, 0x44, 0xd5, 0xff, 0xff, 0x4e, 0xd6, 0xff, 0xff,
  0x04, 0x00, 0x00, 0x00, 0x00, 0x08, 0x00, 0x00, 0x3e, 0xfc, 0x0c, 0x3e,
  0x5a, 0x2c, 0x69, 0x3e, 0x91, 0x91, 0xc8, 0xbc, 0x70, 0x6f, 0x1b, 0x3e,
  0xf8, 0x88, 0xc1, 0xbd, 0x58, 0xdb, 0x21, 0x3f, 0x90, 0x51, 0xd7, 0x3d,
  0x0f, 0x09, 0x96, 0x3e, 0x6b, 0xa7, 0x5d, 0xbc, 0xb5, 0xfd, 0x3e, 0xbd,
  0x8c, 0x17, 0x12, 0xbe, 0x73, 0xcf, 0x80, 0x3c, 0xf1, 0xfc, 0x00, 0xbb,
  0x1a, 0x07, 0xab, 0xbd, 0x80, 0x88, 0x6d, 0xbe, 0x95, 0x62, 0xac, 0xbd,
  0xaf, 0x3e, 0x6c, 0xbd, 0x2d, 0xc5, 0x03, 0xbe, 0x79, 0x10, 0x0f, 0xbe,
  0x77, 0xf8, 0xa7, 0xbd, 0xa2, 0x7f, 0x53, 0x3d, 0x08, 0xd7, 0x0e, 0x3c,
  0x60, 0x65, 0x47, 0xbe, 0xc3, 0xdb, 0x8c, 0xbd, 0xb6, 0x4c, 0x15, 0xbe,
  0xf7, 0xa1, 0x3a, 0xbe, 0xfe, 0x4c, 0x0f, 0xbe, 0x95, 0x1b, 0x3d, 0x3d,
  0x65, 0xc7, 0x9c, 0x3c, 0xcb, 0xb2, 0x66, 0xbc, 0x9a, 0xd5, 0x29, 0xbe,
  0xdf, 0x17, 0xe5, 0xbd, 0xbb, 0x74, 0xc7, 0xbe, 0x0e, 0xd3, 0x6f, 0xbd,
  0xc2, 0xbb, 0xde, 0x3d, 0x4b, 0x55, 0x09, 0x3e, 0xea, 0xc0, 0x10, 0x3e,
  0x86, 0x18, 0xb1, 0x3e, 0x08, 0x85, 0x9a, 0x3e, 0x53, 0xbc, 0x8e, 0x3b,
  0x91, 0xa2, 0x52, 0xbe, 0x8c, 0x36, 0x62, 0xbe, 0x22, 0x47, 0xb8, 0xbd,
  0x17, 0xe0, 0xbf, 0x3e, 0xa5, 0xb2, 0x04, 0x3d, 0xf8, 0x82, 0x47, 0xbe,
  0xaf, 0x31, 0x64, 0x3d, 0xfd, 0x6b, 0x08, 0xbe, 0x4d, 0xb5, 0x2a, 0xbe,
  0x27, 0xf3, 0x2e, 0xbe, 0x7a, 0xbc, 0x30, 0xbe, 0x4b, 0xce, 0x44, 0x3c,
  0x72, 0x3a, 0x06, 0x3e, 0x6f, 0xd9, 0x10, 0x3e, 0x2b, 0x24, 0xfe, 0x3d,
  0x8c, 0xab, 0xa3, 0xbc, 0x6c, 0x7e, 0x2a, 0xbe, 0x49, 0xb9, 0x72, 0x3d,
  0xf1, 0x8a, 0xc9, 0xbe, 0xd3, 0xcb, 0x51, 0x3c, 0x91, 0xdd, 0xf0, 0x3d,
  0x71, 0x8b, 0xda, 0x3e, 0xab, 0x7e, 0x46, 0xbe, 0x0c, 0x28, 0x4d, 0x3d,
  0x30, 0x4f, 0xb5, 0xbe, 0xe5, 0xa4, 0xd8, 0x3d, 0xfa, 0x9d, 0xa2, 0xbe,
  0x50, 0xde, 0xf1, 0xbd, 0xde, 0x5b, 0x6e, 0x3d, 0x6f, 0xfb, 0x05, 0x3f,
  0x61, 0xae, 0x4a, 0xbf, 0x92, 0x17, 0x29, 0xbc, 0x10, 0xc7, 0xce, 0xbe,
  0x51, 0x9e, 0xfe, 0x3b, 0x64, 0x33, 0x9a, 0x3d, 0x28, 0x2d, 0x7b, 0x3e,
  0x0f, 0xad, 0xc5, 0x3d, 0xc6, 0x49, 0xc1, 0xbd, 0x71, 0x48, 0x4e, 0xbc,
  0xec, 0x99, 0xd0, 0xbd, 0xb2, 0xf3, 0x09, 0xbe, 0xee, 0x6c, 0x76, 0xbd,
  0x9b, 0x67, 0x9d, 0x3e, 0xd4, 0xd5, 0x3b, 0x3e, 0x65, 0x7a, 0x49, 0xbe,
  0xde, 0xc1, 0xe8, 0xbe, 0x1b, 0x08, 0x72, 0xbc, 0xb5, 0xb0, 0x55, 0xbe,
  0xc6, 0xa2, 0x81, 0x3d, 0x88, 0x24, 0x7e, 0xbd, 0xe2, 0xb9, 0xf2, 0xbd,
  0x45, 0x90, 0xa8, 0xbd, 0xc3, 0xa0, 0xcd, 0xbd, 0x73, 0xf4, 0x78, 0xbc,
  0x5b, 0x7a, 0xd5, 0xbc, 0x0d, 0xd8, 0x15, 0xbe, 0x9e, 0x4c, 0xdb, 0x3d,
  0x47, 0x0d, 0xdd, 0x3e, 0x31, 0x17, 0x0f, 0x3e, 0xdc, 0xd9, 0x0b, 0xbe,
  0xb1, 0x56, 0xab, 0x3b, 0x20, 0x8a, 0xbb, 0x3d, 0x5e, 0xb2, 0x16, 0xbd,
  0xd4, 0x2d, 0x81, 0x3d, 0x46, 0x95, 0xb7, 0xbc, 0xba, 0x1d, 0x38, 0x3c,
  0xce, 0xc7, 0x57, 0x3d, 0xc6, 0xae, 0x75, 0xbe, 0x1b, 0xc7, 0x3c, 0xbe,
  0x87, 0x2c, 0x0f, 0xbc, 0xa3, 0x30, 0x14, 0xbe, 0xed, 0x3e, 0x9b, 0x3d,
  0x19, 0xd7, 0x68, 0xbd, 0x19, 0xf3, 0x12, 0x3d, 0xbf, 0xfd, 0xf3, 0xbc,
  0xb4, 0xb4, 0xce, 0x3d, 0xf2, 0x7d, 0xa5, 0x3d, 0xe7, 0x4a, 0x27, 0x3d,
  0x81, 0xe8, 0xbf, 0xbd, 0x7f, 0x42, 0x84, 0x3c, 0xb3, 0x90, 0xed, 0x3d,
  0xbf, 0x7f, 0xec, 0x3c, 0xb7, 0xb6, 0xf2, 0xbc, 0x25, 0xe0, 0xb3, 0xbc,
  0x4d, 0x86, 0xb5, 0xbd, 0x2c, 0xbe, 0x0b, 0xbe, 0x2a, 0xa9, 0xa7, 0xbc,
  0x1e, 0x07, 0x85, 0xbd, 0x81, 0x7c, 0xe9, 0xbd, 0xe3, 0x84, 0xfe, 0xbd,
  0x83, 0x89, 0xa7, 0x3e, 0x66, 0x6c, 0xb9, 0x3e, 0xae, 0x7a, 0x53, 0x3c,
  0x1c, 0x22, 0x92, 0xbe, 0x4c, 0x3a, 0x78, 0x3d, 0x4e, 0xdb, 0xd8, 0xbd,
  0x02, 0x7f, 0x6c, 0xbd, 0xf8, 0x05, 0x03, 0xbd, 0x73, 0xb1, 0x02, 0x3e,
  0x3c, 0x69, 0xc8, 0x3d, 0x6d, 0x02, 0x80, 0xbe, 0x1e, 0x3a, 0x58, 0xbe,
  0x48, 0x4c, 0x90, 0x3d, 0xe3, 0x77, 0x00, 0x3d, 0xa6, 0x85, 0x77, 0x3d,
  0xad, 0x5a, 0x79, 0xbd, 0x0c, 0x43, 0x73, 0xbe, 0x0d, 0xc6, 0xd6, 0xbe,
  0xdb, 0xc8, 0x44, 0xbe, 0x79, 0x24, 0x4e, 0x3e, 0xa1, 0x36, 0xbb, 0xbd,
  0x89, 0xa8, 0x5d, 0x3c, 0x82, 0xa2, 0xa0, 0xbc, 0xa0, 0xed, 0x0e, 0xbd,
  0x2e, 0x20, 0x6f, 0xbe, 0x5e, 0x5d, 0x99, 0xbe, 0xa6, 0x87, 0xa0, 0x3d,
  0x70, 0xed, 0x17, 0x3e, 0x4d, 0xed, 0x43, 0xbe, 0x4f, 0x3c, 0xa4, 0xbd,
  0x59, 0xdd, 0x84, 0xbd, 0x26, 0xfc, 0xa1, 0xbe, 0xad, 0x74, 0x76, 0xbe,
  0xb4, 0x8b, 0xdd, 0xbe, 0x18, 0xf3, 0xa7, 0xbe, 0x19, 0xe2, 0xc1, 0xbd,
  0x39, 0xcf, 0xb7, 0xbc, 0xee, 0x34, 0x0c, 0xbe, 0xae, 0x97, 0x51, 0xbd,
  0x14, 0x43, 0x95, 0x3c, 0x1f, 0x01, 0xd6, 0x3d, 0x1e, 0x1c, 0x88, 0xbe,
  0xa3, 0x6d, 0xa5, 0xbe, 0x8d, 0xc1, 0x01, 0xbe, 0x2e, 0xdc, 0xa7, 0xbd,
  0x6c, 0xa2, 0xd8, 0x3d, 0x14, 0xb6, 0xe2, 0xbb, 0x80, 0x1d, 0x28, 0x3e,
  0xb4, 0x8d, 0x90, 0x3d, 0xd2, 0xc7, 0x6c, 0xbc, 0x9e, 0x56, 0x66, 0x3d,
  0x62, 0xd4, 0x17, 0x3e, 0x54, 0x13, 0xba, 0x3d, 0x25, 0x3f, 0x6c, 0x3e,
  0xe5, 0x67, 0x71, 0x3c, 0xbc, 0x6e, 0x81, 0xbd, 0xff, 0xd3, 0x93, 0xbe,
  0xff, 0x49, 0xe9, 0xbd, 0x42, 0x02, 0x48, 0xbd, 0xf0, 0x40, 0x8c, 0x3e,
  0x04, 0xee, 0x0e, 0xbe, 0x59, 0x67, 0x1f, 0xbc, 0x34, 0xc3, 0xe6, 0xbd,
  0xb7, 0xfb, 0x8c, 0xbd, 0x4f, 0xb7, 0x49, 0x3e, 0xc8, 0xad, 0x91, 0x3e,
  0x31, 0xf7, 0x7d, 0xbd, 0x9c, 0x11, 0x9e, 0x3d, 0x7f, 0xe8, 0x63, 0xbe,
  0x81, 0x57, 0xac, 0x3d, 0xc4, 0xfb, 0xb2, 0xbd, 0x58, 0xb4, 0xd7, 0xbd,
  0x23, 0x3a, 0x13, 0xbe, 0xe4, 0x47, 0x82, 0x3e, 0x00, 0x69, 0xe1, 0x3e,
  0xd6, 0x5d, 0x05, 0x3e, 0x5a, 0xac, 0xf2, 0x3d, 0xac, 0x7f, 0x46, 0x3c,
  0x51, 0x08, 0x0d, 0xbd, 0x08, 0x00, 0xac, 0xbd, 0xd9, 0xa2, 0xc9, 0xbd,
  0xd1, 0xaa, 0xa0, 0xbd, 0x5a, 0x40, 0x9c, 0xbd, 0x27, 0x82, 0x7e, 0xbb,
  0xbd, 0x17, 0x95, 0x3e, 0x50, 0x6b, 0x91, 0x3d, 0x2b, 0x69, 0xff, 0x3b,
  0xdf, 0xc7, 0x27, 0xbd, 0x59, 0x0c, 0x12, 0xbe, 0xcc, 0xd8, 0xc6, 0x3b,
  0x53, 0xf4, 0x4e, 0x3d, 0x5c, 0x15, 0xbe, 0x3d, 0x2c, 0xa8, 0xe9, 0x3d,
  0x2b, 0x5a, 0x7f, 0x3d, 0x03, 0xd9, 0x2b, 0xbe, 0x52, 0x85, 0xba, 0xbe,
  0xb6, 0x06, 0x1f, 0xbe, 0xc1, 0xae, 0xdc, 0xbc, 0x9d, 0x7a, 0x65, 0xbe,
  0xd9, 0x30, 0x83, 0xbe, 0x7b, 0xf7, 0xa1, 0xbe, 0xea, 0x6f, 0x50, 0xbe,
  0xf9, 0x54, 0x1f, 0xbe, 0xa7, 0x92, 0x21, 0xbe, 0xfc, 0x78, 0x27, 0xbd,
  0xbc, 0x85, 0x10, 0xbd, 0xfc, 0xb6, 0xd9, 0x3d, 0x6f, 0x66, 0x8b, 0xbd,
  0xf1, 0x40, 0x40, 0xbe, 0xa0, 0x4c, 0x26, 0xbe, 0xbb, 0x07, 0x0b, 0xbe,
  0xef, 0x5e, 0x88, 0x3d, 0x89, 0x33, 0xa0, 0xbd, 0x80, 0x62, 0x1a, 0xbd,
  0x36, 0x24, 0xec, 0xbd, 0x3d, 0x12, 0xa4, 0x3e, 0x84, 0xc8, 0x87, 0xbd,
  0xb2, 0x50, 0xa4, 0x3d, 0x45, 0x8b, 0x25, 0xbe, 0x72, 0xd4, 0xa1, 0x3d,
  0xf5, 0x88, 0x5a, 0x3d, 0x91, 0xaa, 0x93, 0x3e, 0x11, 0x16, 0xb0, 0x3e,
  0xf3, 0x8c, 0xed, 0x3e, 0xa0, 0x0a, 0x9f, 0x3d, 0xe0, 0xe5, 0xca, 0xbc,
  0xb6, 0x3d, 0x96, 0xbd, 0xf7, 0x7b, 0x58, 0x3e, 0x5a, 0x04, 0x55, 0xbd,
  0x7a, 0xe9, 0x52, 0xbe, 0xec, 0x68, 0x34, 0xbe, 0xd1, 0x9f, 0x12, 0xbd,
  0x09, 0xb4, 0x00, 0x3d, 0xc9, 0x6a, 0x28, 0x3f, 0x3e, 0xa9, 0x8e, 0x3c,
  0x86, 0x0c, 0x97, 0x3d, 0x43, 0xd4, 0x37, 0xbe, 0xc0, 0x7a, 0xad, 0xbe,
  0x19, 0xa3, 0xe1, 0xbd, 0x87, 0x82, 0x17, 0x3c, 0x8f, 0x57, 0xee, 0xbd,
  0x3b, 0x6f, 0x28, 0xbe, 0xda, 0xb5, 0x08, 0x3c, 0xae, 0x7b, 0x4b, 0xbd,
  0x8e, 0x1d, 0xac, 0xbe, 0xea, 0x39, 0xb9, 0xbd, 0x62, 0xe8, 0x5b, 0x3d,
  0x6c, 0xa0, 0x3a, 0x3e, 0x4c, 0x01, 0x97, 0xbe, 0x7f, 0xea, 0x7a, 0xbe,
  0x76, 0x9f, 0xbd, 0xbd, 0x24, 0x8b, 0x61, 0xbd, 0x96, 0x89, 0x62, 0xbe,
  0x2b, 0x41, 0x0b, 0x3d, 0x95, 0x73, 0x6f, 0x3e, 0xa4, 0xb2, 0x9b, 0x3e,
  0xd9, 0x77, 0x99, 0xbd, 0xc0, 0x08, 0x7e, 0xbe, 0x18, 0xc6, 0xd6, 0xbd,
  0x77, 0x99, 0x22, 0xbe, 0x49, 0x3c, 0x3b, 0xbe, 0xc6, 0x24, 0x88, 0xbe,
  0x04, 0x88, 0x83, 0xbc, 0x10, 0xb4, 0x2e, 0xbe, 0xcf, 0x68, 0x11, 0xbe,
  0xbb, 0x5d, 0xe9, 0xbd, 0x4e, 0xd6, 0xe3, 0xbd, 0x47, 0xf6, 0x1b, 0xbe,
  0x7e, 0x60, 0x40, 0xbe, 0xed, 0xdb, 0xd2, 0xbd, 0xdb, 0xef, 0xba, 0xbd,
  0x3b, 0x36, 0x07, 0x3e, 0xa8, 0xc0, 0xbf, 0xbd, 0x15, 0xf7, 0xdf, 0xbd,
  0xa5, 0x9e, 0x94, 0xbd, 0xd3, 0x65, 0x51, 0xbd, 0xbd, 0x46, 0xf2, 0x3b,
  0x52, 0x7d, 0xa3, 0xbb, 0xfe, 0x22, 0x43, 0x3d, 0xb3, 0x90, 0xe3, 0xbd,
  0xc5, 0xbd, 0xde, 0x3d, 0x9c, 0x96, 0x08, 0x3c, 0x2b, 0xfc, 0xc7, 0x3d,
  0x78, 0x26, 0x32, 0x3e, 0x0a, 0x7b, 0xef, 0x3e, 0xd0, 0x48, 0x77, 0xbe,
  0x61, 0xe5, 0x76, 0xbd, 0x0c, 0x12, 0xb1, 0x3d, 0x9e, 0xfe, 0x8d, 0x3e,
  0x8a, 0x0d, 0x1a, 0x3d, 0x23, 0x65, 0x11, 0x3e, 0x53, 0x5e, 0x03, 0x3f,
  0x92, 0x37, 0x49, 0x3d, 0x06, 0x61, 0x3b, 0xbe, 0x1e, 0x61, 0x39, 0xbe,
  0xbc, 0x35, 0xf8, 0xbc, 0xcc, 0xca, 0x91, 0xbd, 0xe6, 0x49, 0x19, 0x3f,
  0x8b, 0x7b, 0xf1, 0xbd, 0xfe, 0x35, 0xda, 0xbd, 0x70, 0x3a, 0x88, 0xbc,
  0x3c, 0xa3, 0xf3, 0xbe, 0xb2, 0x39, 0x95, 0xbe, 0x14, 0xad, 0x2c, 0x3d,
  0x9c, 0x50, 0x85, 0xbd, 0x23, 0x7d, 0x75, 0xbe, 0xca, 0x54, 0x5b, 0xbd,
  0xc8, 0xc9, 0x1f, 0xbe, 0x8e, 0xcc, 0x64, 0xbe, 0x61, 0xa0, 0xcf, 0xbc,
  0x1b, 0xc8, 0xbb, 0xbc, 0x25, 0xa1, 0x96, 0x3d, 0x08, 0x85, 0x1c, 0xbe,
  0x1b, 0x33, 0x66, 0xbe, 0xcb, 0x3b, 0xd6, 0xbd, 0xd7, 0x7c, 0x34, 0xbe,
  0xd7, 0xd7, 0x75, 0xbe, 0xc0, 0x47, 0xb8, 0x3c, 0x2f, 0x7e, 0x1f, 0x3e,
  0xde, 0x1d, 0xfb, 0x3d, 0xde, 0xfa, 0x9c, 0xbd, 0x3f, 0x7e, 0x9f, 0xbe,
  0x38, 0xe1, 0x06, 0xbe, 0xf1, 0x3e, 0xa5, 0xbe, 0xc3, 0xdf, 0x9c, 0xbe,
  0xc4, 0x10, 0x42, 0xbe, 0xf2, 0xfd, 0x87, 0xbe, 0x4c, 0x56, 0xbf, 0xbd,
  0x8c, 0x62, 0x7a, 0xbe, 0x3a, 0xfa, 0x32, 0xbe, 0x05, 0x68, 0xee, 0xbe,
  0xc0, 0x97, 0x52, 0x3e, 0x79, 0x0c, 0xbe, 0xbe, 0xc1, 0x9a, 0x73, 0x3e,
  0x9c, 0xb6, 0x36, 0xbe, 0xaa, 0x06, 0xb6, 0x3e, 0x82, 0xb7, 0x37, 0xbf,
  0x46, 0xf8, 0x69, 0x3d, 0x80, 0x3b, 0x8f, 0xbe, 0xea, 0x7a, 0xa1, 0xbd,
  0x85, 0x07, 0xed, 0x3d, 0xfd, 0x7a, 0x8d, 0x3d, 0x66, 0xca, 0xff, 0x3d,
  0x70, 0x13, 0x1d, 0x3e, 0x93, 0xae, 0x84, 0x3e, 0xf7, 0x94, 0x05, 0xbe,
  0xb8, 0xca, 0xf6, 0xbd, 0x97, 0x05, 0xb4, 0xbd, 0x9d, 0x49, 0x15, 0x3e,
  0x13, 0xa0, 0xa3, 0x3d, 0xc8, 0x93, 0x28, 0xbe, 0xa5, 0xce, 0xc4, 0xbe,
  0x23, 0xf2, 0x5e, 0x3e, 0x93, 0x18, 0x90, 0xbe, 0x8e, 0xff, 0xd9, 0xbe,
  0xfd, 0x8e, 0x19, 0xbd, 0x18, 0xa9, 0x59, 0xbc, 0x89, 0x28, 0xb0, 0x3d,
  0x07, 0x3a, 0xd2, 0xba, 0x79, 0x02, 0x08, 0x3f, 0x01, 0x58, 0xf8, 0xbd,
  0xe0, 0x57, 0x2c, 0x3d, 0x19, 0xf0, 0xa6, 0xbe, 0x66, 0xab, 0x6c, 0xbd,
  0x92, 0xa6, 0xa7, 0x3e, 0x7f, 0x50, 0x01, 0x3e, 0x81, 0x62, 0xa6, 0x3d,
  0x72, 0xdb, 0x0d, 0x3e, 0x71, 0x6b, 0x39, 0xbe, 0x0e, 0xe4, 0xdb, 0xbd,
  0xb3, 0x21, 0xf9, 0xbd, 0xab, 0x9c, 0x68, 0xbd, 0x11, 0xfa, 0xfe, 0xbd,
  0xfa, 0x09, 0xda, 0x3c, 0x2e, 0x2f, 0x57, 0xbe, 0x73, 0xd1, 0xc6, 0xbe,
  0xc5, 0x29, 0x07, 0x3f, 0x8f, 0xb7, 0x0a, 0xbe, 0xb3, 0xcd, 0x6b, 0xbd,
  0x00, 0x88, 0xa7, 0xbd, 0x13, 0xb1, 0xfc, 0x3d, 0x51, 0xd2, 0x3d, 0xbe,
  0x93, 0xfe, 0xc8, 0xbe, 0x51, 0x33, 0xb4, 0xbe, 0xf2, 0xab, 0xf4, 0xbd,
  0x96, 0xfc, 0x94, 0xbd, 0xe7, 0x5c, 0x4f, 0xbe, 0xe9, 0x3b, 0xd2, 0xbd,
  0xcc, 0xcd, 0xd3, 0x3d, 0xa2, 0xdc, 0xee, 0xbd, 0x6a, 0xf3, 0x25, 0x3d,
  0x4b, 0xb9, 0x04, 0x3d, 0x83, 0x9d, 0x81, 0x3c, 0x3c, 0x50, 0x92, 0xbd,
  0xd3, 0x21, 0xfa, 0xbd, 0x27, 0xe4, 0x56, 0xbe, 0x1e, 0x80, 0x0d, 0xbe,
  0x4e, 0xda, 0x53, 0xbd, 0xce, 0xb3, 0x45, 0xbe, 0x34, 0x2e, 0x61, 0xbe,
  0xcb, 0x6c, 0x56, 0xbe, 0x9f, 0x32, 0xf1, 0xba, 0x4f, 0xbd, 0x38, 0xbe,
  0xfb, 0xa1, 0xd0, 0xbd, 0x65, 0x3f, 0xe2, 0xba, 0xc7, 0xe1, 0x84, 0xbd,
  0xd4, 0xbf, 0x39, 0xbe, 0x86, 0x90, 0x2c, 0x3e, 0xa1, 0x2f, 0x89, 0xbe,
  0x65, 0x3f, 0x10, 0xbd, 0x06, 0x09, 0x82, 0xbe, 0xd1, 0x54, 0x76, 0x3e,
  0x5d, 0x94, 0x9c, 0xbc, 0x36, 0x1e, 0xd9, 0x3d, 0xae, 0xa4, 0x8a, 0x3e,
  0xd8, 0x1b, 0x37, 0x3e, 0xee, 0x13, 0xb8, 0xbd, 0x2f, 0xd9, 0x92, 0xbd,
  0x36, 0x02, 0x8b, 0xbc, 0x94, 0xc2, 0x41, 0xbe, 0x11, 0xf7, 0x5a, 0x3c,
  0x75, 0xef, 0x60, 0x3d, 0x45, 0x98, 0x85, 0xbe, 0x78, 0x81, 0xc3, 0x3d,
  0x46, 0x85, 0x99, 0xbe, 0x8a, 0xf4, 0x3d, 0xbe, 0x9c, 0x78, 0x2d, 0xbe,
  0x84, 0x84, 0xe6, 0x3c, 0x15, 0x15, 0x81, 0xbd, 0x28, 0xe0, 0xa1, 0x3d,
  0x53, 0x6b, 0xb1, 0x3e, 0xdb, 0xcc, 0x42, 0x3d, 0xbd, 0x7b, 0xbd, 0xbe,
  0x66, 0xd2, 0x85, 0xbe, 0xa9, 0x0c, 0x3b, 0x3e, 0x21, 0x3f, 0x27, 0x3d,
  0x57, 0x67, 0xbc, 0xba, 0x4c, 0xb2, 0x5c, 0x3c, 0x21, 0x6c, 0x60, 0xbe,
  0x63, 0x4d, 0x50, 0xbe, 0x2e, 0x08, 0xd3, 0xbe, 0x0a, 0x98, 0x4e, 0xbe,
  0x0d, 0x13, 0x4d, 0x3e, 0x2d, 0xfa, 0x95, 0x3d, 0xaf, 0x4f, 0x2f, 0x3d,
  0xe7, 0xcb, 0x0f, 0x3e, 0x7e, 0xa7, 0xd7, 0x3c, 0x08, 0x93, 0xd4, 0x3c,
  0x2c, 0x1f, 0x8d, 0xbe, 0xa2, 0xe4, 0x06, 0xbe, 0x39, 0xfa, 0xa1, 0x3d,
  0x43, 0x06, 0x98, 0xbe, 0x58, 0x88, 0x8c, 0x3b, 0xfc, 0x15, 0x89, 0xbe,
  0x09, 0xc2, 0x65, 0xbb, 0xa5, 0x2d, 0x04, 0xbe, 0x79, 0x1b, 0x33, 0xbe,
  0x02, 0xdf, 0xfc, 0xbd, 0xd4, 0xe1, 0xe6, 0x3d, 0x09, 0xae, 0x82, 0xbe,
  0xc2, 0x4d, 0x65, 0xbd, 0x3e, 0x61, 0x0f, 0x3d, 0xed, 0x6b, 0xa1, 0xbc,
  0x63, 0x05, 0x5b, 0xbd, 0x7b, 0xe1, 0x5f, 0x3e, 0xec, 0x8a, 0xd3, 0xbc,
  0xef, 0x1a, 0xe0, 0xbc, 0x15, 0xf4, 0x84, 0xbe, 0xe5, 0x4d, 0xcd, 0xbd,
  0xdb, 0x9f, 0xbc, 0x3d, 0x5d, 0x7d, 0xed, 0xbd, 0xb0, 0x46, 0x6f, 0xbe,
  0xab, 0xc1, 0xe2, 0xbd, 0xb4, 0x8d, 0x4d, 0xbe, 0xb0, 0x8b, 0x2d, 0xbc,
  0x29, 0xd6, 0x29, 0xbe, 0x85, 0x65, 0x35, 0x3e, 0x22, 0xe8, 0x0f, 0x3b,
  0x6f, 0x21, 0xc7, 0xbe, 0xd6, 0x35, 0xe8, 0x3c, 0x15, 0x51, 0xb8, 0xbd,
  0xa2, 0x4c, 0x08, 0xbe, 0x26, 0xde, 0xff, 0xff, 0x10, 0x00, 0x00, 0x00,
  0x0a, 0x00, 0x00, 0x00, 0x1c, 0x00, 0x00, 0x00, 0x38, 0x00, 0x00, 0x00,
  0x04, 0x00, 0x00, 0x00, 0x10, 0x00, 0x00, 0x00, 0x04, 0x00, 0x00, 0x00,
  0x01, 0x00, 0x00, 0x00, 0x08, 0x00, 0x00, 0x00, 0x1a, 0x00, 0x00, 0x00,
  0x73, 0x65, 0x71, 0x75, 0x65, 0x6e, 0x74, 0x69, 0x61, 0x6c, 0x2f, 0x63,
  0x6f, 0x6e, 0x76, 0x32, 0x64, 0x5f, 0x31, 0x2f, 0x43, 0x6f, 0x6e, 0x76,
  0x32, 0x44, 0x00, 0x00, 0x9c, 0xdd, 0xff, 0xff, 0xa6, 0xde, 0xff, 0xff,
  0x04, 0x00, 0x00, 0x00, 0x80, 0x01, 0x00, 0x00, 0xb3, 0xea, 0xa5, 0xbd,
  0xd9, 0x95, 0x5b, 0xbe, 0x95, 0xf0, 0x75, 0x3e, 0x03, 0x87, 0x32, 0x3d,
  0x51, 0xe5, 0xd9, 0x3c, 0xa1, 0xd8, 0xd1, 0x3b, 0xd2, 0x15, 0xa7, 0xbd,
  0x2c, 0xae, 0x94, 0xbd, 0x0a, 0x0a, 0x05, 0x3e, 0xc8, 0x92, 0x9a, 0xbd,
  0x98, 0xf6, 0x57, 0x3d, 0xaa, 0x10, 0x00, 0x3b, 0xd9, 0x40, 0x59, 0x3d,
  0x3d, 0x50, 0xef, 0xbd, 0xd6, 0x9d, 0x43, 0xbc, 0x1a, 0xcb, 0xea, 0x3d,
  0xeb, 0x4e, 0x05, 0xbe, 0xba, 0xf6, 0x21, 0xbe, 0xc6, 0x19, 0x2d, 0xbd,
  0xec, 0x1d, 0x5a, 0xbd, 0x6c, 0x9a, 0x42, 0x3e, 0xcd, 0xf1, 0x6e, 0xbe,
  0xc2, 0x8b, 0x81, 0x3e, 0x2d, 0xf4, 0x8a, 0x3e, 0xa7, 0x43, 0x7a, 0x3e,
  0x7e, 0xa9, 0xb8, 0x3d, 0xda, 0x60, 0xae, 0x3c, 0xac, 0xbe, 0x5b, 0x3e,
  0xa8, 0x22, 0xfe, 0x3d, 0x6a, 0x41, 0xc8, 0x3d, 0x19, 0x83, 0x51, 0xbc,
  0xf5, 0x92, 0xd9, 0x39, 0xfe, 0xe5, 0xb7, 0x3c, 0x0e, 0x86, 0xbd, 0xbe,
  0x7d, 0x37, 0x99, 0xbe, 0x5a, 0xb5, 0xa8, 0xbc, 0xf6, 0xcf, 0xf6, 0x3d,
  0x25, 0xeb, 0x12, 0xbe, 0x83, 0x3c, 0xc4, 0xbd, 0x34, 0x11, 0xf9, 0x3e,
  0x6e, 0x00, 0x27, 0x3e, 0x9c, 0x09, 0xb2, 0x3b, 0x62, 0x19, 0x7b, 0xbe,
  0x9a, 0x26, 0xb2, 0x3d, 0x59, 0xce, 0x9b, 0x3c, 0x35, 0xa2, 0xc6, 0xbd,
  0x5e, 0xf3, 0x41, 0xbd, 0x9c, 0xc0, 0xc1, 0x3d, 0xfb, 0x21, 0x56, 0xbe,
  0x0e, 0x0e, 0x8e, 0xbe, 0x81, 0x0e, 0x91, 0x3b, 0x40, 0x7c, 0x48, 0x3e,
  0x28, 0xf5, 0xa4, 0x3e, 0x9e, 0x48, 0x3a, 0xbe, 0x98, 0x30, 0x47, 0x3e,
  0x13, 0x56, 0xbd, 0xbd, 0xdc, 0x26, 0x94, 0x3e, 0xd8, 0xc5, 0x21, 0xbd,
  0x2c, 0xab, 0x04, 0x3e, 0x9b, 0x5e, 0x31, 0xbe, 0x70, 0xa5, 0xc2, 0xbc,
  0x9d, 0xba, 0xf7, 0xbc, 0x67, 0x6c, 0xc2, 0xbc, 0xa7, 0xe6, 0x4c, 0xbe,
  0x8a, 0x26, 0xba, 0xbe, 0x9b, 0x17, 0xc3, 0xbe, 0x69, 0xa6, 0xa9, 0x3d,
  0xed, 0xb2, 0xf3, 0x3d, 0xf7, 0xac, 0x10, 0x3e, 0xc0, 0x02, 0x27, 0x3e,
  0x1f, 0x53, 0x97, 0x3e, 0x28, 0x10, 0x7c, 0x3e, 0x78, 0xfb, 0xee, 0x3e,
  0xfb, 0x6d, 0x91, 0x3c, 0x06, 0x28, 0x62, 0x3e, 0x4d, 0xf3, 0x80, 0x3d,
  0xf9, 0x8d, 0x07, 0x3e, 0x9f, 0x8e, 0x44, 0xbe, 0xe0, 0x05, 0xb6, 0xbe,
  0x93, 0xaf, 0xdd, 0x3d, 0x33, 0xab, 0xd4, 0x3d, 0xd5, 0x71, 0xc2, 0xbd,
  0x5f, 0xce, 0x9c, 0xbe, 0x75, 0x84, 0x68, 0xbe, 0xb2, 0x14, 0xa6, 0xbc,
  0xfd, 0x3d, 0xfb, 0x3d, 0xb1, 0xb0, 0x6d, 0xbe, 0x35, 0x6a, 0x8b, 0xbd,
  0xca, 0xae, 0xa0, 0x3e, 0x5a, 0xe0, 0x46, 0xbe, 0x65, 0xab, 0xac, 0x3d,
  0xd9, 0xf2, 0x19, 0xbe, 0x56, 0x10, 0x39, 0xbb, 0xc3, 0x55, 0x3f, 0x3e,
  0xf8, 0xeb, 0x69, 0xbe, 0x7a, 0x91, 0x8f, 0x3e, 0xfe, 0xdf, 0xff, 0xff,
  0x10, 0x00, 0x00, 0x00, 0x09, 0x00, 0x00, 0x00, 0x1c, 0x00, 0x00, 0x00,
  0x38, 0x00, 0x00, 0x00, 0x04, 0x00, 0x00, 0x00, 0x08, 0x00, 0x00, 0x00,
  0x04, 0x00, 0x00, 0x00, 0x03, 0x00, 0x00, 0x00, 0x01, 0x00, 0x00, 0x00,
  0x18, 0x00, 0x00, 0x00, 0x73, 0x65, 0x71, 0x75, 0x65, 0x6e, 0x74, 0x69,
  0x61, 0x6c, 0x2f, 0x63, 0x6f, 0x6e, 0x76, 0x32, 0x64, 0x2f, 0x43, 0x6f,
  0x6e, 0x76, 0x32, 0x44, 0x00, 0x00, 0x00, 0x00, 0x74, 0xdf, 0xff, 0xff,
  0x7e, 0xe0, 0xff, 0xff, 0x04, 0x00, 0x00, 0x00, 0xc0, 0x00, 0x00, 0x00,
  0xd3, 0xb0, 0x4c, 0x3e, 0x70, 0x4d, 0xc7, 0xbd, 0xe0, 0xdd, 0xdd, 0x3e,
  0x57, 0xba, 0xfe, 0x3d, 0x9e, 0x6e, 0xcb, 0x3e, 0xc3, 0x4d, 0x7b, 0xbd,
  0x76, 0x8f, 0x9d, 0x3d, 0x85, 0x1c, 0xec, 0x3d, 0xfa, 0xbe, 0x30, 0xbe,
  0x6c, 0x0b, 0xa8, 0x3d, 0x33, 0x1f, 0x89, 0x3e, 0x99, 0xe0, 0xfe, 0x3e,
  0x18, 0xa5, 0x13, 0x3e, 0x21, 0x83, 0x99, 0xbe, 0x73, 0x9f, 0x3f, 0xbe,
  0x5f, 0x99, 0xda, 0xbd, 0xe2, 0xa9, 0xcd, 0x3e, 0xfb, 0xf9, 0x83, 0xbc,
  0xd5, 0xce, 0xbb, 0x3e, 0xe5, 0x1c, 0xd5, 0xbe, 0x45, 0xde, 0xb4, 0x3e,
  0x5f, 0xc2, 0x3f, 0xbe, 0xda, 0xa9, 0xe0, 0x3c, 0x0a, 0x5c, 0x5e, 0x3e,
  0xe0, 0x7a, 0x50, 0xbe, 0x3a, 0xc2, 0xd8, 0x3d, 0xb2, 0x87, 0xa0, 0x3e,
  0xfc, 0x69, 0xeb, 0x3e, 0xa3, 0x02, 0xa8, 0x3e, 0xc6, 0x1d, 0x91, 0xbe,
  0xc7, 0x88, 0xd4, 0xbd, 0x75, 0x8b, 0xc0, 0x3e, 0xca, 0x30, 0xda, 0x3e,
  0xd7, 0x2e, 0x92, 0xbd, 0x9c, 0x9d, 0x53, 0x3e, 0x66, 0xb5, 0xed, 0xbe,
  0xad, 0x11, 0x93, 0x3e, 0x72, 0xa6, 0x77, 0xbe, 0x81, 0x46, 0x13, 0x3d,
  0xf1, 0x6e, 0x1d, 0x3e, 0xcc, 0xc0, 0x21, 0xbe, 0x02, 0x93, 0xf7, 0x3d,
  0x32, 0x19, 0x80, 0x3e, 0x57, 0x3d, 0xdc, 0x3e, 0x93, 0x62, 0x87, 0x3e,
  0xa4, 0xc5, 0xb6, 0xbe, 0x07, 0xc1, 0x26, 0xbe, 0xaa, 0x1b, 0x3e, 0x3e,
  0x16, 0xe1, 0xff, 0xff, 0x10, 0x00, 0x00, 0x00, 0x08, 0x00, 0x00, 0x00,
  0x14, 0x00, 0x00, 0x00, 0x30, 0x00, 0x00, 0x00, 0x02, 0x00, 0x00, 0x00,
  0x03, 0x00, 0x00, 0x00, 0x10, 0x00, 0x00, 0x00, 0x19, 0x00, 0x00, 0x00,
  0x73, 0x65, 0x71, 0x75, 0x65, 0x6e, 0x74, 0x69, 0x61, 0x6c, 0x2f, 0x64,
  0x65, 0x6e, 0x73, 0x65, 0x5f, 0x31, 0x2f, 0x4d, 0x61, 0x74, 0x4d, 0x75,
  0x6c, 0x00, 0x00, 0x00, 0x84, 0xe0, 0xff, 0xff, 0x8e, 0xe1, 0xff, 0xff,
  0x04, 0x00, 0x00, 0x00, 0x00, 0x1c, 0x00, 0x00, 0xb8, 0xd8, 0x44, 0xbe,
  0x97, 0x81, 0xd3, 0x3c, 0xa1, 0xe4, 0xae, 0xbe, 0x7e, 0xeb, 0x9f, 0xbe,
  0x51, 0xdb, 0xd4, 0xbe, 0x38, 0xee, 0x2e, 0xbe, 0x17, 0xa2, 0x9d, 0xba,
  0xb9, 0xa5, 0x1f, 0x3e, 0xd5, 0x1f, 0x5c, 0xbd, 0x54, 0xe4, 0xa7, 0x3d,
  0x62, 0x1d, 0xec, 0x39, 0x4f, 0x14, 0x55, 0xbe, 0xb6, 0x23, 0x3b, 0xbd,
  0x19, 0x05, 0x25, 0xbd, 0x0e, 0x2c, 0xa7, 0x3e, 0xbf, 0x4c, 0x83, 0x3e,
  0x08, 0x86, 0xe2, 0xbd, 0x09, 0x78, 0xd3, 0x3b, 0x60, 0x6c, 0xd0, 0xbd,
  0xce, 0x90, 0x9d, 0xbe, 0x8d, 0x30, 0x18, 0xbd, 0x8e, 0xd0, 0xc5, 0x3e,
  0x74, 0xd7, 0x51, 0x3e, 0x63, 0x9b, 0x17, 0x3d, 0xb1, 0x4c, 0xbd, 0xbb,
  0xb2, 0x3c, 0x22, 0x3e, 0x72, 0x21, 0x90, 0xba, 0x0d, 0x4b, 0x2b, 0x3e,
  0x3d, 0x4c, 0xcb, 0xbb, 0x98, 0x09, 0x25, 0x3e, 0x70, 0x5b, 0x41, 0x3e,
  0x9e, 0x66, 0x95, 0x3e, 0xb0, 0x6a, 0x04, 0xbe, 0x8c, 0x15, 0xab, 0x3c,
  0xa6, 0xc4, 0xb1, 0xbd, 0xdf, 0x4b, 0x34, 0x3b, 0x5c, 0x27, 0x71, 0xbe,
  0xa7, 0xf2, 0x18, 0x3e, 0x76, 0x12, 0x32, 0x3e, 0x10, 0xa1, 0xd1, 0x3d,
  0x0e, 0xce, 0x03, 0x3e, 0x36, 0xd9, 0x62, 0x3d, 0x4b, 0x9f, 0x98, 0xbd,
  0x94, 0x04, 0x3a, 0x3e, 0x3b, 0xe3, 0xbe, 0x3d, 0x47, 0xfa, 0x26, 0xbe,
  0x5e, 0x00, 0x20, 0x3e, 0xd1, 0xf3, 0x3c, 0x3e, 0xcf, 0x10, 0x5b, 0x3c,
  0xef, 0x89, 0xca, 0x3c, 0x3c, 0xd5, 0x37, 0x3c, 0xaa, 0x0b, 0x89, 0x3d,
  0x88, 0xe6, 0xe4, 0x3d, 0x3a, 0x60, 0x0e, 0x3e, 0x5e, 0x50, 0x98, 0x3d,
  0x62, 0x71, 0x8b, 0x3e, 0x31, 0x4f, 0x96, 0x3d, 0x97, 0x51, 0xa8, 0x3d,
  0x66, 0x80, 0xe3, 0xbd, 0x9d, 0x58, 0x95, 0x3d, 0x7a, 0x83, 0x19, 0x3e,
  0x91, 0xc2, 0x91, 0xbc, 0xac, 0x62, 0x2c, 0x3d, 0xd6, 0x4d, 0xff, 0x3e,
  0xa4, 0x64, 0x9a, 0xbd, 0xbd, 0x21, 0x0a, 0x3d, 0xba, 0x09, 0x84, 0xbd,
  0xb2, 0xc7, 0xc0, 0xbd, 0xf7, 0x58, 0x02, 0xbe, 0x57, 0xd7, 0x17, 0x3c,
  0x2e, 0xe4, 0x30, 0x3d, 0xc7, 0xbb, 0xf2, 0xbb, 0x6c, 0x15, 0xd9, 0x3c,
  0x1a, 0x36, 0x76, 0xbd, 0xc1, 0xd9, 0x45, 0xbe, 0x26, 0x9e, 0xc7, 0xbd,
  0x1d, 0x69, 0x41, 0xbc, 0xc1, 0x35, 0xba, 0xbc, 0x21, 0xb2, 0x8c, 0x3e,
  0x22, 0xfa, 0x3f, 0x3e, 0x2f, 0x62, 0xd7, 0x3d, 0xfc, 0x34, 0x22, 0x3d,
  0xda, 0xce, 0x12, 0x3c, 0x68, 0x69, 0x18, 0x3d, 0xb6, 0x72, 0x25, 0xbe,
  0x00, 0xbe, 0x88, 0xbe, 0x01, 0xe1, 0x11, 0xbd, 0x31, 0xfa, 0xa6, 0xbe,
  0x68, 0x5c, 0x26, 0xbe, 0x71, 0xc8, 0xb8, 0xbd, 0xe0, 0xcc, 0xc3, 0x3c,
  0xe1, 0xb3, 0x3d, 0x3e, 0xa3, 0xb6, 0xa3, 0x3d, 0x73, 0xbc, 0x3e, 0xbd,
  0x41, 0x7d, 0x29, 0x3e, 0xf7, 0x54, 0x58, 0x3d, 0xd7, 0xb0, 0x7b, 0x3d,
  0xda, 0xfa, 0x4d, 0xbd, 0x95, 0xe5, 0x36, 0xbd, 0x23, 0x16, 0x30, 0xbe,
  0x2f, 0x6b, 0xea, 0xbd, 0x25, 0x23, 0xa8, 0x3d, 0xdb, 0x34, 0x7a, 0xbd,
  0x94, 0x91, 0x90, 0xbe, 0x19, 0x2b, 0x94, 0x3b, 0x2d, 0xfb, 0x24, 0xbe,
  0xf9, 0xa2, 0x31, 0xbe, 0x2c, 0x7f, 0x30, 0xbe, 0x58, 0x29, 0x64, 0xbd,
  0x61, 0xd0, 0xa7, 0xbe, 0xd7, 0x3b, 0xe0, 0x3d, 0xc4, 0xd4, 0x59, 0x3e,
  0x69, 0xff, 0x0e, 0xbe, 0xae, 0x82, 0x55, 0x3e, 0x87, 0xde, 0x5f, 0x3e,
  0xe4, 0x7c, 0x08, 0xbe, 0x8b, 0x00, 0xd2, 0x3d, 0xb3, 0x69, 0x03, 0xbe,
  0x4b, 0xa6, 0x34, 0x3e, 0xf9, 0x29, 0x92, 0x3d, 0x06, 0xca, 0x4e, 0xbe,
  0x47, 0x79, 0xe3, 0x3d, 0xbb, 0xf3, 0x84, 0xbd, 0x20, 0xff, 0x29, 0x3e,
  0xbc, 0xca, 0x3c, 0x3e, 0x10, 0xa8, 0x40, 0x3d, 0x4e, 0x21, 0xf1, 0x3c,
  0x94, 0x0d, 0xb0, 0xbd, 0xf3, 0xe4, 0xdb, 0x3d, 0x1d, 0x46, 0x2f, 0x3d,
  0x57, 0x61, 0x08, 0xbd, 0xea, 0x35, 0x82, 0xbc, 0x62, 0x2b, 0xe1, 0x3d,
  0xaf, 0x09, 0x9f, 0x3c, 0x52, 0xcc, 0xae, 0x3d, 0x09, 0x2d, 0xba, 0xbd,
  0x1b, 0x23, 0x7d, 0xbd, 0xbb, 0x15, 0x94, 0xbd, 0xa3, 0xda, 0xd4, 0xbd,
  0xa6, 0x7e, 0x9e, 0xbd, 0x06, 0xad, 0x88, 0xbd, 0x9f, 0xa1, 0x10, 0xbe,
  0xac, 0xb1, 0x0b, 0xbd, 0x03, 0x04, 0x56, 0xbe, 0xfc, 0xfe, 0xc2, 0xbb,
  0xea, 0xe4, 0xcb, 0xbe, 0xbd, 0xf6, 0xe4, 0x3d, 0xb9, 0x8d, 0x14, 0x3e,
  0xe3, 0xf3, 0xfb, 0xbd, 0x52, 0xa8, 0x5e, 0x3d, 0x13, 0x59, 0x94, 0xbe,
  0xe4, 0xa8, 0x8b, 0xbe, 0xc9, 0xe9, 0x9c, 0x3d, 0xcb, 0x7b, 0x9d, 0xbe,
  0xca, 0x27, 0xae, 0xbc, 0x53, 0x98, 0x96, 0xbe, 0x20, 0xb2, 0x98, 0xbe,
  0x77, 0x78, 0xaa, 0x3c, 0xaa, 0xbd, 0x0d, 0xbe, 0x2f, 0x4d, 0xb4, 0xbc,
  0x21, 0xbc, 0xe1, 0xbe, 0x92, 0x4e, 0x56, 0xbe, 0x61, 0xcd, 0x8c, 0xbe,
  0xa9, 0xc4, 0x94, 0xbc, 0xbc, 0xaa, 0xd3, 0xbe, 0x49, 0x6f, 0x78, 0x3e,
  0xc2, 0xaa, 0x9b, 0xbe, 0xab, 0x04, 0xde, 0x3b, 0x50, 0xdf, 0xa6, 0xbe,
  0xe5, 0xfe, 0xc7, 0xbe, 0x88, 0x0c, 0xd2, 0xbe, 0x82, 0x6d, 0x53, 0xbe,
  0x68, 0x3f, 0x2d, 0xbf, 0x7a, 0x66, 0xf6, 0xbd, 0x57, 0x8c, 0xcf, 0xbd,
  0xa5, 0x3d, 0xd4, 0xbd, 0x8a, 0xac, 0x89, 0xbe, 0x06, 0xe1, 0x32, 0xbe,
  0xd1, 0x94, 0x82, 0xbe, 0xed, 0x56, 0x9a, 0xbd, 0x28, 0xad, 0x1b, 0xbe,
  0xe4, 0xc5, 0xbe, 0x3d, 0xf9, 0x57, 0x25, 0xbe, 0xcd, 0xa1, 0x1c, 0x3d,
  0xae, 0x1d, 0x54, 0xbe, 0x5b, 0x79, 0x34, 0xbe, 0x3a, 0x55, 0x12, 0xbe,
  0x78, 0x9d, 0x7b, 0xbd, 0xac, 0x6a, 0xbc, 0xbe, 0x11, 0x95, 0x31, 0xbe,
  0x5f, 0xb5, 0x78, 0xbd, 0xdd, 0x35, 0x81, 0xbd, 0xba, 0x91, 0x37, 0x3d,
  0x12, 0x06, 0x10, 0xbe, 0x0e, 0x9c, 0x90, 0x3d, 0x29, 0xec, 0xb0, 0xbc,
  0x1f, 0x65, 0x8d, 0xbe, 0xb8, 0xf1, 0xdf, 0x3d, 0x6b, 0x97, 0xf1, 0xbd,
  0x36, 0x85, 0x43, 0xbd, 0x17, 0x66, 0xa1, 0x3c, 0x0a, 0x77, 0xa0, 0xbe,
  0x04, 0xf5, 0x1e, 0xbe, 0xf8, 0xe1, 0xca, 0xbd, 0x4a, 0xac, 0xa9, 0xbe,
  0xdd, 0x74, 0xe7, 0xbc, 0x28, 0x99, 0x0c, 0xbe, 0xa5, 0xa4, 0x90, 0xbd,
  0xda, 0x53, 0x1e, 0x3c, 0x36, 0x5c, 0x32, 0xbe, 0x91, 0xe7, 0x06, 0x3e,
  0x8b, 0x7e, 0x5e, 0xbd, 0x2d, 0x85, 0x06, 0xbe, 0x5f, 0xe4, 0x92, 0xbd,
  0xe4, 0x74, 0x80, 0xbe, 0xc5, 0xe0, 0x48, 0xbd, 0x4c, 0xa2, 0x14, 0x3e,
  0x2a, 0x71, 0x6d, 0xbe, 0x32, 0xdf, 0x55, 0xbd, 0x7d, 0xb5, 0x92, 0xbd,
  0x13, 0x3c, 0xcf, 0xbd, 0x4a, 0x91, 0x22, 0xbe, 0x7b, 0xee, 0xa0, 0x3d,
  0x08, 0x97, 0x03, 0xbe, 0xc3, 0xb6, 0xbc, 0xbe, 0x86, 0x16, 0x32, 0xbe,
  0x46, 0x94, 0x55, 0xbe, 0xfc, 0xb5, 0x9a, 0xbd, 0xc8, 0x5b, 0x94, 0xbe,
  0x9d, 0x98, 0x9b, 0xbe, 0x01, 0x0d, 0x13, 0xbe, 0x45, 0x7e, 0x21, 0xbe,
  0xd3, 0x96, 0x57, 0xbe, 0x7c, 0x2b, 0x8b, 0x3d, 0x0c, 0xe1, 0x07, 0xbe,
  0x0f, 0xe7, 0x05, 0x3d, 0x06, 0xbd, 0x39, 0xbe, 0xfd, 0xb0, 0x9e, 0x3f,
  0xb4, 0x46, 0x77, 0xbd, 0x6f, 0x17, 0x6e, 0x3c, 0x89, 0xc4, 0x75, 0xbd,
  0xdd, 0x60, 0x60, 0xbe, 0x8e, 0xe3, 0x85, 0xbe, 0x39, 0xec, 0x05, 0xbe,
  0x44, 0xcc, 0x5f, 0xbd, 0x6c, 0xc5, 0xec, 0xbb, 0x1e, 0x67, 0x47, 0xbe,
  0x19, 0x7c, 0x8a, 0xbe, 0xbf, 0xc8, 0x84, 0xbd, 0x06, 0xa6, 0x13, 0xbe,
  0xb8, 0x5c, 0x43, 0xbe, 0xfa, 0xbd, 0xdd, 0xbc, 0x39, 0x7a, 0xdd, 0xbd,
  0x38, 0x2e, 0x8b, 0x3f, 0xca, 0x80, 0x84, 0x3d, 0xda, 0x50, 0x11, 0x3f,
  0xb8, 0x13, 0x67, 0x3d, 0xe9, 0xe7, 0x84, 0xbe, 0x3b, 0x68, 0x0d, 0xbe,
  0x41, 0x27, 0xd4, 0xbd, 0xc6, 0x2d, 0xb2, 0xbd, 0xa4, 0xa9, 0x9b, 0xbd,
  0xed, 0x98, 0x1c, 0xbe, 0xe1, 0x35, 0xe1, 0x3b, 0x0b, 0xd4, 0x93, 0xbe,
  0x53, 0x31, 0x8b, 0xbe, 0xc0, 0x7e, 0xa9, 0xbe, 0x14, 0xcf, 0x06, 0x3e,
  0xb7, 0x88, 0x5f, 0x3c, 0x1f, 0x50, 0x96, 0x3f, 0xb3, 0x31, 0x99, 0xbc,
  0x8c, 0x52, 0xb1, 0x3e, 0x81, 0xc9, 0x81, 0xbe, 0x29, 0xa1, 0x86, 0xbe,
  0xff, 0xbf, 0x4e, 0xbe, 0xaa, 0x49, 0x60, 0xbd, 0xb6, 0x3d, 0x23, 0xbc,
  0x78, 0x2b, 0x13, 0xbc, 0x15, 0xc9, 0x18, 0xbe, 0x17, 0x52, 0xc2, 0xbd,
  0x79, 0x36, 0xa5, 0x3c, 0xcb, 0xbb, 0xe8, 0x3d, 0xac, 0x33, 0x27, 0xbe,
  0x0d, 0xbd, 0x79, 0x3d, 0xc7, 0xf5, 0x59, 0xbc, 0xd4, 0x42, 0x0e, 0x3f,
  0xda, 0x4c, 0x12, 0x3d, 0x93, 0x07, 0x80, 0x3e, 0xea, 0xa9, 0x82, 0x3d,
  0xec, 0xbc, 0x5b, 0xbe, 0x02, 0x5c, 0x13, 0xbe, 0x99, 0xb0, 0x41, 0xbd,
  0x10, 0x9a, 0xa0, 0x3e, 0x65, 0x9c, 0x80, 0x3d, 0xb6, 0xa9, 0xe3, 0xbd,
  0x6a, 0xec, 0x55, 0xbe, 0x06, 0xb0, 0x47, 0x3e, 0x24, 0x95, 0x5f, 0x3d,
  0x93, 0xb8, 0x75, 0x3d, 0x3d, 0x55, 0x2a, 0x3d, 0x67, 0x25, 0x47, 0x3d,
  0xc9, 0xfc, 0xbb, 0x3e, 0x97, 0xc0, 0x1c, 0xbd, 0x3f, 0x69, 0x63, 0x3e,
  0xaf, 0xe7, 0xa0, 0x3d, 0xe3, 0xdd, 0x0a, 0xbe, 0x35, 0x93, 0x5e, 0xbe,
  0x8f, 0x5b, 0x91, 0xbb, 0x58, 0xb3, 0x2a, 0x3e, 0x48, 0x0f, 0xc9, 0x3e,
  0xb1, 0xee, 0xc2, 0xbd, 0x88, 0x2a, 0x60, 0x39, 0xdb, 0x74, 0x5c, 0x3e,
  0x8e, 0x4a, 0xfa, 0x3d, 0x77, 0xb4, 0x2b, 0x3e, 0x83, 0x54, 0xe1, 0xbd,
  0xbd, 0x57, 0x67, 0xbe, 0xff, 0xe5, 0xf9, 0x3e, 0x2d, 0x98, 0x58, 0x3d,
  0xdd, 0x2d, 0xe3, 0x3d, 0x66, 0xe6, 0xd6, 0x3d, 0xa6, 0x6c, 0xe3, 0xbd,
  0x06, 0xbb, 0x01, 0x3d, 0xeb, 0x31, 0x8b, 0x3d, 0xf9, 0x72, 0x90, 0xbc,
  0xce, 0xdc, 0xe2, 0xbd, 0x7c, 0x1f, 0x94, 0xbd, 0x07, 0x9d, 0xa1, 0xbd,
  0x5a, 0xaf, 0xe4, 0x3d, 0x9c, 0xae, 0xaf, 0xbd, 0x17, 0xd0, 0x28, 0x3d,
  0x42, 0x99, 0xc3, 0xbd, 0x19, 0x4c, 0xc0, 0x3c, 0x98, 0x50, 0xb8, 0x3e,
  0xec, 0x97, 0x5e, 0xbe, 0x76, 0xaa, 0xce, 0xbd, 0x97, 0x7a, 0x37, 0xbe,
  0x63, 0x65, 0x22, 0xbd, 0xa4, 0x06, 0x79, 0xbe, 0x1a, 0x57, 0xb6, 0xbd,
  0x5c, 0xf6, 0xaf, 0xbd, 0xb9, 0x4d, 0xdc, 0x3d, 0x5d, 0xed, 0xa8, 0xbe,
  0xeb, 0xca, 0xce, 0x3d, 0x26, 0xda, 0x07, 0xbe, 0x48, 0x1b, 0x63, 0xbe,
  0x42, 0xe4, 0x5e, 0x3d, 0x98, 0xf2, 0x9d, 0xbe, 0xaa, 0x16, 0x02, 0xbe,
  0x71, 0xa3, 0x49, 0x3f, 0x37, 0x0f, 0xea, 0xbd, 0x88, 0x24, 0xe1, 0xbd,
  0xb3, 0x41, 0x89, 0x3d, 0x43, 0xca, 0x8f, 0xbe, 0x88, 0xaa, 0xf4, 0x3c,
  0x02, 0x5a, 0xb1, 0xbd, 0xe2, 0x44, 0xb8, 0xba, 0x61, 0xd4, 0x21, 0xbd,
  0xac, 0x75, 0x86, 0xbe, 0x0d, 0xc0, 0xd7, 0x3d, 0xd1, 0x10, 0xb0, 0xbd,
  0x37, 0x0d, 0x3f, 0xbe, 0x87, 0x3e, 0x9b, 0xbd, 0x46, 0x30, 0x91, 0xba,
  0xe0, 0x57, 0x89, 0xbe, 0x8b, 0x59, 0x7c, 0x3f, 0x94, 0xb6, 0xff, 0xbc,
  0xa0, 0x59, 0x53, 0x3e, 0xa7, 0xc8, 0x72, 0xbd, 0x05, 0x06, 0x9e, 0xbe,
  0xbe, 0x3e, 0x88, 0xbe, 0xce, 0x8f, 0x91, 0xbd, 0xcc, 0x64, 0xd8, 0xbd,
  0x2f, 0x57, 0x71, 0xbe, 0x46, 0x98, 0x9b, 0xbe, 0x1b, 0x5a, 0x4d, 0x3c,
  0xfb, 0x41, 0xcb, 0x3c, 0xab, 0xd5, 0x14, 0xbe, 0x8d, 0x08, 0x34, 0xbe,
  0x5f, 0x30, 0x1b, 0x3e, 0x52, 0xe6, 0xdf, 0x3d, 0x39, 0x42, 0x2d, 0x3f,
  0xfc, 0x71, 0xbc, 0x3d, 0xed, 0xaa, 0x10, 0xbd, 0xf2, 0x5c, 0x45, 0xbe,
  0x78, 0x2c, 0x8e, 0xbd, 0x87, 0x94, 0x5c, 0x3b, 0xf6, 0x63, 0xa7, 0xbc,
  0x9f, 0x92, 0x04, 0xbe, 0x1d, 0x77, 0x25, 0x3e, 0x8d, 0x68, 0x6a, 0xbc,
  0xab, 0x45, 0x62, 0xbe, 0x48, 0x7d, 0xd7, 0xbd, 0xc9, 0xd0, 0xc1, 0xbd,
  0xb1, 0xd2, 0x3c, 0xbd, 0xad, 0xc5, 0x84, 0xbe, 0x33, 0x74, 0x2c, 0xbd,
  0x9c, 0x23, 0x83, 0x3f, 0x1c, 0x68, 0xb3, 0x3b, 0x6b, 0xc8, 0x69, 0x3d,
  0x8b, 0x52, 0x19, 0x3e, 0x42, 0x19, 0xb6, 0xbe, 0xc7, 0x19, 0x9d, 0xbe,
  0x4a, 0xef, 0x4e, 0x3d, 0x94, 0x29, 0x45, 0x3e, 0x2e, 0x64, 0x73, 0xbb,
  0x7e, 0x92, 0x6a, 0xbe, 0x91, 0xf1, 0xfa, 0x3d, 0x49, 0x14, 0xdc, 0xbb,
  0x53, 0x62, 0x33, 0xbe, 0x7e, 0xd2, 0xaf, 0x3d, 0xfc, 0xb8, 0x3c, 0xbe,
  0xa9, 0x9e, 0xb6, 0xbd, 0x6c, 0x35, 0xcd, 0x3e, 0x51, 0x58, 0xb3, 0xbb,
  0x49, 0xb0, 0xe0, 0x3d, 0xb8, 0xfe, 0xbc, 0x3c, 0xf4, 0x09, 0x5d, 0xbb,
  0xb7, 0x29, 0x3e, 0xbe, 0x9c, 0x4f, 0x88, 0xbd, 0x2e, 0x9e, 0x6b, 0xbe,
  0x68, 0x52, 0x5c, 0xbd, 0xf9, 0xa5, 0x6c, 0xbe, 0x24, 0x90, 0xe3, 0x3d,
  0xeb, 0x17, 0x9e, 0x3c, 0x8f, 0xce, 0xdc, 0x3c, 0xfc, 0xb5, 0x76, 0x3d,
  0xe9, 0x8b, 0x1e, 0x3c, 0x40, 0x1a, 0x41, 0xbd, 0xd1, 0xea, 0x0c, 0x3f,
  0x83, 0x71, 0xb5, 0xbd, 0x2b, 0x89, 0x38, 0x3d, 0x1b, 0xa5, 0x22, 0xbe,
  0xff, 0x65, 0x81, 0xbe, 0x4b, 0x1e, 0x89, 0x3b, 0x4c, 0xb4, 0xe8, 0xbd,
  0x17, 0x70, 0x8f, 0xbd, 0x01, 0x08, 0x33, 0xbd, 0xf7, 0x5c, 0x42, 0xbe,
  0x18, 0xf9, 0x78, 0xbc, 0x89, 0xb1, 0x10, 0xbd, 0x56, 0x1a, 0x7e, 0xbe,
  0x47, 0x98, 0x06, 0xbe, 0xfb, 0x4e, 0x25, 0xbe, 0xff, 0x8c, 0x8f, 0xbe,
  0xd5, 0x38, 0xaf, 0x3e, 0x9e, 0x40, 0x03, 0xbe, 0x2d, 0x7d, 0x4b, 0xbe,
  0xcb, 0xa4, 0xe4, 0xbe, 0x11, 0x6b, 0xd8, 0xbe, 0x99, 0xc5, 0x4a, 0xbe,
  0x78, 0x58, 0xc7, 0xbd, 0xfb, 0x6d, 0x4a, 0xbe, 0x7d, 0x1c, 0x94, 0xbe,
  0x6c, 0x09, 0xd6, 0xbd, 0x7a, 0xf1, 0x25, 0xbf, 0x85, 0x34, 0x07, 0xbf,
  0x32, 0xa0, 0xad, 0xbe, 0x00, 0xa9, 0xe5, 0xbe, 0x84, 0x42, 0x8d, 0xbe,
  0x23, 0x14, 0x98, 0x3b, 0x11, 0x99, 0x8d, 0xba, 0x0a, 0xbe, 0x5b, 0xbe,
  0x83, 0x15, 0x0f, 0xbe, 0x86, 0xa9, 0xd8, 0xbe, 0xdb, 0x2e, 0x55, 0xbe,
  0x07, 0x88, 0x0d, 0xbe, 0x65, 0x1f, 0x8f, 0xbd, 0x1c, 0x08, 0xb7, 0xbd,
  0x7c, 0x59, 0x5d, 0xbd, 0xb6, 0x9f, 0x07, 0xbd, 0xfc, 0xa7, 0x15, 0xbe,
  0xbf, 0x46, 0x99, 0xbe, 0xec, 0xab, 0x65, 0x3e, 0x1c, 0x1b, 0xbe, 0xbe,
  0x45, 0x15, 0x5c, 0x3b, 0xec, 0xac, 0xd4, 0xbe, 0xba, 0xac, 0x4c, 0x3e,
  0x53, 0x81, 0x3b, 0x3b, 0x86, 0x4e, 0x8d, 0xbe, 0x08, 0x03, 0x68, 0x3c,
  0x54, 0xd6, 0x42, 0xbe, 0xaa, 0x56, 0x24, 0xbe, 0x22, 0xe9, 0xe7, 0x3b,
  0xb9, 0x15, 0x43, 0x3e, 0xa3, 0x77, 0x9e, 0x3d, 0x63, 0x57, 0x39, 0xbc,
  0x17, 0xe8, 0x0f, 0x3e, 0x10, 0x44, 0x03, 0x3e, 0x2f, 0xeb, 0x84, 0xbc,
  0x72, 0x2c, 0x25, 0x3e, 0x68, 0x43, 0x71, 0xbe, 0x08, 0xad, 0x95, 0xbe,
  0x73, 0x0b, 0xf9, 0x3d, 0xa3, 0xeb, 0xc0, 0xbc, 0xe4, 0x5a, 0x53, 0xbe,
  0x1d, 0x4c, 0x83, 0x3e, 0xea, 0x48, 0xa4, 0xbe, 0x31, 0x7b, 0x49, 0x3d,
  0xfa, 0x44, 0x48, 0xbd, 0x13, 0x49, 0xd9, 0x3d, 0xa4, 0x6c, 0xee, 0x3d,
  0x59, 0xd3, 0x57, 0xbc, 0x1c, 0xd7, 0x88, 0xbd, 0xac, 0x0e, 0x52, 0x3e,
  0x76, 0x76, 0xfb, 0x3c, 0x20, 0x52, 0xf6, 0x3d, 0xc3, 0xa5, 0x73, 0x3d,
  0x64, 0xd4, 0x8b, 0x3b, 0xd3, 0xc7, 0x75, 0xbe, 0x5b, 0x5b, 0x16, 0xbe,
  0x67, 0x7f, 0xeb, 0xbe, 0x37, 0xc0, 0xb0, 0x3e, 0xd7, 0xb0, 0xac, 0xbe,
  0x36, 0x72, 0xcd, 0xbd, 0x52, 0x4e, 0x51, 0xbd, 0x46, 0x3a, 0x59, 0x3e,
  0xdf, 0xc7, 0x4e, 0x3d, 0x92, 0x58, 0x30, 0xbd, 0x45, 0x48, 0x9b, 0xbe,
  0x11, 0xd8, 0xb0, 0x3e, 0xdc, 0xe5, 0x5d, 0x3e, 0x71, 0xc0, 0x5b, 0x3d,
  0xc2, 0x09, 0xa5, 0xbd, 0xf8, 0xcd, 0x8c, 0xbe, 0x12, 0xbb, 0x1e, 0xbf,
  0x81, 0x65, 0xf1, 0xbd, 0x01, 0x4f, 0x29, 0xbe, 0x35, 0x44, 0x99, 0x3e,
  0xfa, 0x28, 0x2b, 0xbe, 0xdc, 0x77, 0x90, 0xbe, 0x71, 0x39, 0xa3, 0xbd,
  0x7d, 0x91, 0x49, 0x3e, 0xda, 0x47, 0x9b, 0x3e, 0x66, 0xe5, 0x54, 0x3c,
  0xd8, 0x1f, 0x27, 0xbe, 0xee, 0x53, 0x54, 0x3e, 0xf1, 0x67, 0x09, 0x3e,
  0x4a, 0x99, 0xdf, 0xba, 0xad, 0x10, 0xa6, 0xbe, 0x04, 0xba, 0xa6, 0xbd,
  0x1d, 0xe2, 0x05, 0xbf, 0xb9, 0xff, 0x40, 0xbe, 0xfb, 0xef, 0xdf, 0xbd,
  0x83, 0x09, 0x32, 0x3e, 0x37, 0xb6, 0x5a, 0xbd, 0xa5, 0xe2, 0xb1, 0x3d,
  0x82, 0x2c, 0xcf, 0x3d, 0xa5, 0xf9, 0xf7, 0x3b, 0x3c, 0xad, 0xaf, 0x3d,
  0xba, 0x7f, 0x2e, 0x3d, 0x72, 0x84, 0xe9, 0x3d, 0x62, 0x05, 0x1d, 0x3e,
  0x9d, 0x44, 0x01, 0x3e, 0xb3, 0x9b, 0xaf, 0x3d, 0xe7, 0x3c, 0xc7, 0xbe,
  0xdf, 0x83, 0x23, 0x3d, 0xc4, 0x4f, 0xa8, 0xbc, 0x4d, 0x2a, 0x22, 0xbe,
  0xed, 0x75, 0xbb, 0xbe, 0x25, 0xb9, 0x60, 0x3e, 0x0c, 0x50, 0xe5, 0xbd,
  0x46, 0xef, 0x98, 0xbc, 0x31, 0x47, 0xb1, 0x3b, 0x42, 0xd3, 0x1c, 0xbd,
  0xb5, 0xe7, 0xb0, 0x3d, 0x71, 0xe0, 0x7e, 0xbe, 0x58, 0x96, 0x48, 0xbd,
  0x01, 0x7a, 0xea, 0x3d, 0x73, 0x05, 0xb5, 0xbd, 0x5f, 0xe2, 0x7b, 0x3e,
  0x05, 0xe8, 0x77, 0xbe, 0x3b, 0xa3, 0x6f, 0xbd, 0xfa, 0xd3, 0x84, 0x3f,
  0xf1, 0xf4, 0x2f, 0xbe, 0x2a, 0x20, 0xa0, 0xbd, 0x3c, 0x1e, 0x6b, 0x3e,
  0x34, 0xd1, 0x31, 0xbe, 0xd9, 0x9c, 0x06, 0xbe, 0x75, 0x6c, 0xa9, 0xbd,
  0x15, 0xe1, 0xfb, 0xbd, 0x5f, 0xa1, 0x95, 0xbe, 0x6d, 0xe6, 0x65, 0xbd,
  0x2b, 0x44, 0xb0, 0xbd, 0xfe, 0xc7, 0x90, 0x3e, 0x22, 0xd0, 0x9e, 0x3e,
  0x31, 0xd5, 0x30, 0x3e, 0xe9, 0x71, 0x03, 0x3e, 0x0a, 0x2b, 0xf5, 0x3d,
  0x9a, 0x0b, 0x99, 0x3f, 0x62, 0xa3, 0x26, 0xbd, 0x8c, 0x67, 0x6b, 0x3d,
  0x03, 0xbb, 0xd5, 0x3c, 0x90, 0x16, 0x1c, 0xbe, 0xcd, 0x1f, 0xcc, 0xbd,
  0xdf, 0xc2, 0xd0, 0x3c, 0x55, 0xf9, 0x9b, 0x3e, 0x5d, 0xf0, 0x3d, 0x3e,
  0xfe, 0xd0, 0x86, 0x3c, 0x32, 0xfb, 0x11, 0x3e, 0xfb, 0xcb, 0xb0, 0x3e,
  0xab, 0x4a, 0xfa, 0x3e, 0x09, 0xe1, 0x82, 0xbd, 0xee, 0x40, 0x55, 0x3c,
  0x86, 0x6c, 0xa4, 0x3e, 0x30, 0x4d, 0x58, 0x3f, 0x17, 0x23, 0x8d, 0xbd,
  0x33, 0x7e, 0x4b, 0x3e, 0x43, 0x29, 0x9d, 0x3d, 0x1f, 0xe5, 0x80, 0xbe,
  0xe1, 0xcc, 0x8e, 0xbd, 0x74, 0x56, 0xce, 0x3d, 0x33, 0xcd, 0x8f, 0x3e,
  0xbf, 0xdb, 0xc9, 0xbd, 0xda, 0xf1, 0x1b, 0xbe, 0x7f, 0x42, 0xa4, 0x3c,
  0x77, 0x67, 0x75, 0x3e, 0x5b, 0x66, 0x15, 0x3e, 0x1d, 0x95, 0x7e, 0x3e,
  0x33, 0xd4, 0xff, 0xbd, 0x2e, 0x5a, 0xc2, 0xbd, 0xe8, 0x16, 0x4f, 0x3f,
  0x26, 0x32, 0x25, 0xbe, 0xe0, 0x1f, 0x24, 0xbe, 0xcf, 0x0b, 0x4f, 0x3e,
  0x88, 0xdf, 0x1f, 0xbe, 0xf4, 0x04, 0x31, 0xbe, 0xad, 0x42, 0x69, 0xbd,
  0x41, 0x40, 0x97, 0x3d, 0x1b, 0xba, 0xc9, 0xbd, 0xb7, 0xe4, 0xd6, 0xbd,
  0xa4, 0x99, 0xa3, 0xbd, 0xc6, 0x74, 0xdd, 0x3e, 0x2a, 0xb4, 0x72, 0xbe,
  0x96, 0x62, 0x97, 0x3e, 0x2d, 0x52, 0x24, 0xbc, 0x40, 0x11, 0x0b, 0xbe,
  0x2b, 0x4f, 0x49, 0x3f, 0x51, 0x1c, 0x99, 0xbd, 0x15, 0x7a, 0xde, 0x3d,
  0x5c, 0x6a, 0xe2, 0x3c, 0x58, 0xb7, 0x93, 0xbe, 0x22, 0xfc, 0x36, 0xbe,
  0x3d, 0x0b, 0x31, 0xbe, 0x9a, 0x8f, 0xb1, 0xbd, 0x77, 0xd1, 0x9e, 0xbe,
  0x89, 0x18, 0xf0, 0xbd, 0xfe, 0x7c, 0xb6, 0xbb, 0x9b, 0xbd, 0xfc, 0x3c,
  0xc2, 0x94, 0x03, 0x3e, 0xc6, 0xa2, 0x94, 0xbe, 0x40, 0x4b, 0xaa, 0x3c,
  0x5f, 0xbd, 0x91, 0xbd, 0xe7, 0xf3, 0xfc, 0x3e, 0x94, 0x51, 0x0a, 0xbe,
  0x07, 0x7d, 0x8f, 0x3e, 0x6b, 0x1e, 0xaf, 0xbe, 0x4a, 0xa7, 0x2c, 0xbe,
  0xff, 0x9c, 0x34, 0xbe, 0x6c, 0xb6, 0x68, 0xbe, 0xf2, 0xc4, 0xbf, 0x3c,
  0x27, 0x32, 0xaf, 0x3b, 0x85, 0x34, 0x33, 0xbd, 0x4b, 0x5d, 0xcc, 0xbd,
  0x2c, 0x6c, 0xb4, 0xbe, 0x22, 0xaa, 0x2c, 0x3c, 0x4d, 0xea, 0x52, 0xbe,
  0x70, 0x4b, 0xf9, 0xbd, 0x20, 0x70, 0x2a, 0xbe, 0x0d, 0x04, 0xfc, 0x3e,
  0x6a, 0xd1, 0x8b, 0xbd, 0xe0, 0x54, 0x47, 0x3e, 0xfa, 0x82, 0x98, 0x3e,
  0x1b, 0x2b, 0xda, 0xbe, 0x16, 0xaa, 0x03, 0xbe, 0x21, 0x75, 0x90, 0x3d,
  0xc8, 0x0a, 0xcf, 0x3c, 0xaa, 0xb9, 0xb5, 0x3d, 0xbf, 0xea, 0x99, 0xbe,
  0xdd, 0x8d, 0x47, 0xbe, 0x2c, 0xa5, 0xed, 0x3e, 0x77, 0x19, 0x8f, 0x3d,
  0x3b, 0x48, 0xea, 0x3d, 0x7f, 0x75, 0xea, 0xbd, 0xeb, 0x92, 0x3b, 0xbe,
  0xda, 0x56, 0xee, 0x3d, 0x13, 0x09, 0x25, 0xbe, 0x77, 0x97, 0xfc, 0xbc,
  0x79, 0x84, 0x86, 0x3d, 0xf8, 0x9f, 0x51, 0xbe, 0xe3, 0xe5, 0xb8, 0x3d,
  0xfe, 0x7c, 0x63, 0x3c, 0xa8, 0x47, 0x19, 0x3c, 0x77, 0xd2, 0xe5, 0xbc,
  0x1e, 0xbd, 0x09, 0xbe, 0xc4, 0xdc, 0xf7, 0x3b, 0x92, 0x06, 0x82, 0x3e,
  0x2e, 0x75, 0x89, 0x3e, 0x24, 0x21, 0x7f, 0x3e, 0x96, 0x8f, 0xb9, 0x3e,
  0xd4, 0xaa, 0x55, 0xbd, 0x08, 0xf8, 0x1e, 0xbe, 0x63, 0xe2, 0xe3, 0xbe,
  0x58, 0x24, 0x72, 0xbe, 0x8c, 0x57, 0x28, 0x3e, 0x0b, 0x94, 0x6c, 0xbe,
  0x2c, 0x68, 0x91, 0xbd, 0x6d, 0xaa, 0x30, 0xbe, 0x4a, 0xbd, 0x90, 0x3e,
  0x82, 0xf9, 0xa3, 0xbe, 0x4c, 0xd2, 0x9e, 0x3d, 0x05, 0x07, 0xfa, 0xbd,
  0xf6, 0x1a, 0x82, 0x3e, 0x3b, 0x45, 0xa6, 0x3e, 0x73, 0xe9, 0x81, 0xbd,
  0xc5, 0xf6, 0x2e, 0xbe, 0x4f, 0x79, 0x70, 0x3e, 0x23, 0x1c, 0xea, 0xbd,
  0x70, 0xd8, 0xdb, 0xbe, 0xe2, 0xd5, 0x00, 0xbe, 0xf4, 0x58, 0xc0, 0xbd,
  0x2c, 0xc7, 0xae, 0xbe, 0xfc, 0xad, 0x13, 0x3e, 0x24, 0x44, 0xe4, 0xbb,
  0xf3, 0xfd, 0xf1, 0x3e, 0x21, 0xfc, 0x57, 0x3e, 0xe8, 0xed, 0x48, 0x3e,
  0xcc, 0x23, 0x7d, 0xbd, 0x2e, 0x1a, 0xb9, 0x3c, 0x59, 0x06, 0xb8, 0x3e,
  0x86, 0x15, 0x45, 0x3e, 0x8a, 0x2c, 0xaa, 0x3d, 0x46, 0x7c, 0x48, 0x3e,
  0x91, 0x21, 0x5b, 0xbd, 0x32, 0x23, 0x3b, 0xbe, 0x4b, 0x6f, 0x19, 0x3e,
  0xfd, 0x45, 0x98, 0x3d, 0x61, 0xa3, 0x62, 0xbe, 0xbd, 0xcd, 0x45, 0xbd,
  0x1c, 0xa5, 0x27, 0x3d, 0xae, 0xf0, 0x43, 0x3e, 0x18, 0x8f, 0x52, 0x3e,
  0x6d, 0x3e, 0xd2, 0xbc, 0x3b, 0x93, 0x05, 0x3d, 0x4f, 0x7b, 0x82, 0x3e,
  0xde, 0xc9, 0x87, 0x3e, 0xb2, 0xb7, 0x2c, 0x3e, 0x53, 0x83, 0x86, 0xbe,
  0x08, 0x30, 0xdf, 0x3d, 0x56, 0x77, 0x4f, 0xbe, 0x52, 0xc4, 0x6f, 0x3e,
  0xea, 0xa7, 0x80, 0x3c, 0x7f, 0xc3, 0xd5, 0x3e, 0xbd, 0x9b, 0xb8, 0xbe,
  0x6b, 0x5a, 0x90, 0xbd, 0xec, 0x53, 0x92, 0x3d, 0x71, 0xb3, 0x28, 0x3e,
  0xa5, 0xbe, 0xaa, 0x3d, 0x17, 0x3d, 0x57, 0xbd, 0xde, 0x73, 0x6f, 0x3c,
  0xd9, 0x1d, 0xa0, 0x3e, 0xfc, 0x37, 0x8a, 0x3d, 0xcf, 0x7e, 0x4b, 0x3e,
  0xc9, 0x82, 0xf3, 0x3d, 0x6c, 0x49, 0x83, 0xbc, 0x7a, 0x42, 0x59, 0xbd,
  0x3b, 0xd8, 0xde, 0x3d, 0x74, 0x29, 0x24, 0x3c, 0xc2, 0x40, 0xbd, 0xbe,
  0x63, 0x2d, 0xec, 0xbd, 0x4d, 0x82, 0x5c, 0xbe, 0x73, 0xb4, 0x02, 0xbe,
  0x00, 0xfa, 0xa2, 0xbd, 0x32, 0x15, 0x2a, 0xbe, 0x5e, 0xf4, 0xb7, 0xbd,
  0x48, 0xfc, 0x03, 0xbe, 0x6f, 0xd1, 0x66, 0xbe, 0x00, 0x68, 0x1a, 0xbd,
  0x45, 0xaa, 0x72, 0xbd, 0xec, 0x38, 0xbe, 0xbe, 0x92, 0xe9, 0x8a, 0xbd,
  0xfd, 0x6d, 0x08, 0xbe, 0x74, 0x32, 0x5d, 0xbe, 0x47, 0xcb, 0x02, 0x3e,
  0xc0, 0x0e, 0xa0, 0x3e, 0x7c, 0x51, 0xd9, 0x3b, 0x63, 0xfd, 0x86, 0x3e,
  0x0b, 0xa5, 0xa7, 0xbe, 0xcb, 0xdc, 0x63, 0x3d, 0x0f, 0x30, 0x1d, 0xbe,
  0xf7, 0x9d, 0xf7, 0xbd, 0xe6, 0x6e, 0x00, 0xbd, 0xca, 0x6b, 0xae, 0xbd,
  0xef, 0x04, 0x93, 0x3d, 0x54, 0xdc, 0x2d, 0xbe, 0xf9, 0x05, 0x57, 0x3e,
  0xef, 0x9b, 0x9f, 0x3e, 0xa4, 0x15, 0x22, 0xbf, 0xa3, 0x50, 0xdb, 0xbd,
  0x9d, 0x1e, 0xdb, 0xbe, 0x4b, 0x2e, 0xa3, 0xbc, 0x83, 0xd1, 0xc9, 0xbd,
  0xbf, 0xd1, 0x25, 0xbe, 0xc1, 0xa6, 0x53, 0xbe, 0xe6, 0x9b, 0xab, 0x3b,
  0x66, 0x89, 0xf7, 0x3d, 0x19, 0x9d, 0xf9, 0xbd, 0x39, 0x1d, 0x0c, 0xbe,
  0x20, 0x34, 0xc8, 0x3c, 0xea, 0xd7, 0xd5, 0xbd, 0xbe, 0xa0, 0xf2, 0xbd,
  0xfd, 0xbf, 0x72, 0xbe, 0xf9, 0x44, 0xfa, 0xbd, 0xf2, 0xab, 0x04, 0xbf,
  0x99, 0x62, 0x1f, 0x3b, 0x09, 0x5d, 0xde, 0xbe, 0x6a, 0x4d, 0x65, 0xbd,
  0x46, 0xab, 0xd5, 0xbd, 0xa0, 0x72, 0x41, 0x3e, 0xd3, 0xe8, 0xab, 0xbc,
  0xa5, 0x04, 0x45, 0xbe, 0x9c, 0xf3, 0xa9, 0xbd, 0x04, 0x0d, 0x0b, 0xbe,
  0x41, 0x6d, 0x60, 0xbd, 0x69, 0x49, 0xf8, 0xbc, 0x5a, 0xe3, 0x1e, 0xbe,
  0xb1, 0xad, 0xea, 0x3c, 0xee, 0x9c, 0x5a, 0xbe, 0x84, 0xd4, 0x1f, 0xbd,
  0x21, 0xec, 0x99, 0xbe, 0x84, 0xfa, 0x3b, 0x3e, 0x97, 0x19, 0x9a, 0xbe,
  0x0f, 0x5b, 0x8d, 0xbe, 0x7f, 0xb3, 0x85, 0xbd, 0xc6, 0xa7, 0x19, 0x3e,
  0x67, 0x19, 0x6f, 0xbe, 0xd0, 0xb6, 0x41, 0xbd, 0x89, 0x12, 0xf4, 0x3c,
  0xdb, 0x56, 0x1f, 0xbe, 0x6a, 0xea, 0xd0, 0xbb, 0xda, 0x32, 0x61, 0x3d,
  0xa7, 0x27, 0x33, 0xbf, 0xdb, 0xdc, 0x98, 0xbe, 0xd6, 0x6c, 0x62, 0xbe,
  0xb1, 0x7f, 0x3b, 0xbd, 0x2e, 0x61, 0x58, 0x3e, 0xaf, 0x24, 0xa5, 0x3d,
  0x03, 0x7d, 0x1b, 0xbf, 0x32, 0x3f, 0xf4, 0xbd, 0xb0, 0xed, 0xc6, 0xbc,
  0x1a, 0x3f, 0x80, 0x3e, 0xd6, 0xcf, 0x78, 0xbe, 0x7d, 0xa1, 0x8d, 0x3d,
  0xce, 0xd7, 0xd0, 0x3c, 0xe6, 0xe7, 0xe6, 0xbd, 0xbc, 0x2d, 0x1f, 0x3e,
  0x9b, 0x8e, 0x83, 0x3d, 0xbb, 0xf6, 0xed, 0x3c, 0x60, 0x86, 0x5a, 0xbe,
  0x89, 0xdd, 0x90, 0x3e, 0x63, 0x19, 0x23, 0x3c, 0xa6, 0x96, 0x16, 0x3f,
  0x24, 0x3b, 0x05, 0x3e, 0x63, 0xf3, 0xf7, 0xbe, 0x86, 0x0a, 0xf7, 0xbd,
  0x6e, 0xf2, 0x80, 0xbd, 0xca, 0x1f, 0x32, 0x3d, 0xf4, 0x26, 0x71, 0xbd,
  0xe4, 0xec, 0x8a, 0x3d, 0x9c, 0x19, 0x97, 0xbd, 0xca, 0x6c, 0xe5, 0x3d,
  0x66, 0x5e, 0x9e, 0x3d, 0x0f, 0xe7, 0x12, 0x3e, 0x23, 0x60, 0x53, 0x3d,
  0xe4, 0x2a, 0x5d, 0xbe, 0x81, 0x18, 0x6d, 0x3e, 0x74, 0x0e, 0x04, 0x3e,
  0xf0, 0x21, 0xd5, 0x3e, 0x8e, 0x8b, 0x2d, 0x3e, 0x23, 0xba, 0x17, 0x3e,
  0x28, 0xa8, 0xb2, 0x3d, 0x30, 0xab, 0xe5, 0xbc, 0xd4, 0x0f, 0xa2, 0xbc,
  0x6b, 0x45, 0x8b, 0x3c, 0xd7, 0x47, 0x93, 0x3d, 0xa3, 0x69, 0x73, 0xbd,
  0xb7, 0xa4, 0xf2, 0x3d, 0xbc, 0x50, 0xa4, 0x3e, 0x46, 0xb4, 0xe1, 0x3c,
  0x32, 0x5d, 0x90, 0x3d, 0x19, 0x6c, 0x40, 0xbd, 0xc6, 0x2f, 0x3e, 0x3e,
  0x1b, 0x96, 0xb5, 0x3d, 0xa8, 0x23, 0x30, 0x3f, 0x7f, 0x42, 0x40, 0xbc,
  0x6a, 0x44, 0x3c, 0x3e, 0xd9, 0x75, 0xcf, 0xbe, 0x26, 0xd0, 0xcd, 0xbd,
  0x57, 0x90, 0xe2, 0xbe, 0x5e, 0xde, 0x4e, 0x3d, 0x0b, 0xd8, 0x37, 0xbe,
  0x17, 0x7d, 0x5a, 0xbe, 0x83, 0x84, 0x70, 0xbd, 0x76, 0xce, 0x0c, 0xbd,
  0xb6, 0x7f, 0x90, 0xbe, 0xeb, 0x61, 0x4d, 0xbe, 0x05, 0x9f, 0xbe, 0xbe,
  0xd1, 0x96, 0xa3, 0xbe, 0x49, 0xed, 0x93, 0xbe, 0x6c, 0xb1, 0xc1, 0xbd,
  0x8e, 0x5f, 0x7f, 0x3e, 0x89, 0x2c, 0x26, 0x3f, 0x63, 0x74, 0xf0, 0xbe,
  0xea, 0xe1, 0x9c, 0xbc, 0x6a, 0x13, 0xfc, 0xbc, 0xb0, 0xfb, 0x94, 0x3d,
  0x48, 0xb3, 0x17, 0x3d, 0x93, 0x45, 0xd5, 0x3e, 0x0e, 0xce, 0x2a, 0x3e,
  0x12, 0x7f, 0xc4, 0xbd, 0xab, 0x08, 0xf8, 0xbc, 0xcf, 0x01, 0x58, 0xbe,
  0x0c, 0x7e, 0x0b, 0xbe, 0x4b, 0x2e, 0x54, 0xbe, 0x92, 0x6c, 0xcb, 0xbd,
  0x0b, 0xfc, 0x1b, 0xbe, 0x56, 0x0e, 0xa0, 0x3d, 0xf7, 0xad, 0x76, 0x3e,
  0xd7, 0x1a, 0x0e, 0xbd, 0x67, 0x71, 0xd7, 0x3e, 0xf1, 0x66, 0xa1, 0x3e,
  0x1a, 0xa8, 0x9e, 0xbc, 0x31, 0xf2, 0x80, 0x3d, 0xe9, 0xbe, 0x57, 0x3e,
  0xbc, 0x90, 0x6d, 0x3d, 0x59, 0x6e, 0x32, 0xbd, 0x83, 0x6b, 0x30, 0x3d,
  0xe3, 0x2a, 0xbb, 0xbe, 0xd7, 0x43, 0x02, 0x3d, 0x56, 0x57, 0x93, 0xbe,
  0x87, 0x8a, 0x95, 0xbd, 0x5e, 0xab, 0xe1, 0xbe, 0x65, 0x90, 0xda, 0x3d,
  0x82, 0x44, 0xd2, 0x3e, 0xdf, 0xc9, 0x67, 0xbe, 0xf3, 0xe9, 0xce, 0x3b,
  0xa3, 0xa0, 0xbb, 0x3d, 0xe4, 0xbd, 0x3d, 0x3d, 0x21, 0xe6, 0xd3, 0x3c,
  0x1b, 0xf8, 0x8d, 0x3e, 0x8e, 0x01, 0x9b, 0x3c, 0xa2, 0xff, 0x88, 0xbd,
  0xc2, 0x04, 0x82, 0xbd, 0x9c, 0xfc, 0xe1, 0xbe, 0xdd, 0x56, 0x1b, 0x3e,
  0xf5, 0xa4, 0x95, 0xbc, 0xb8, 0x27, 0x49, 0xbe, 0xb7, 0xe6, 0x0d, 0xbe,
  0xaa, 0x83, 0x27, 0x3c, 0xb4, 0xd0, 0x8e, 0x3e, 0xa7, 0x1d, 0x32, 0xbe,
  0x09, 0xb3, 0x83, 0xbd, 0xff, 0x8c, 0x10, 0x3e, 0x69, 0x57, 0x99, 0x3d,
  0x4c, 0x4d, 0x1f, 0x3e, 0x44, 0xf6, 0x02, 0x3e, 0x33, 0xf8, 0x6d, 0x3d,
  0xaf, 0xf5, 0x88, 0xbd, 0x3d, 0x65, 0xc9, 0x3d, 0x40, 0x60, 0x34, 0xbe,
  0x3d, 0x60, 0xc1, 0x3d, 0xd3, 0x84, 0xdb, 0xbd, 0x9c, 0x1a, 0x88, 0x3d,
  0xff, 0x86, 0xd7, 0xbe, 0x98, 0x99, 0xd7, 0x3d, 0xfa, 0x52, 0xce, 0x3e,
  0x2e, 0xbd, 0x58, 0xbe, 0xc6, 0xb0, 0x0e, 0xbd, 0xe9, 0x9f, 0xa4, 0x3d,
  0xc2, 0xd1, 0xce, 0x3c, 0xad, 0xd0, 0x8a, 0xbc, 0x91, 0x68, 0x46, 0xbd,
  0x01, 0x5b, 0xf6, 0xbd, 0x8d, 0x61, 0x04, 0xbf, 0x55, 0x5a, 0xb0, 0xbd,
  0xdc, 0x67, 0x86, 0xbf, 0xaa, 0x05, 0x43, 0x3d, 0xf9, 0x22, 0xd3, 0xbe,
  0xe3, 0xe2, 0x0d, 0xbf, 0x4c, 0xd2, 0xc0, 0xbe, 0x75, 0xf1, 0x08, 0x3b,
  0xcb, 0x3c, 0x23, 0x3f, 0x3c, 0xf0, 0x34, 0xbd, 0xe7, 0xb9, 0x88, 0x3d,
  0x98, 0xdc, 0x2d, 0xbe, 0xe4, 0x67, 0x35, 0x3a, 0xf3, 0x22, 0x0f, 0xbd,
  0x7e, 0xf0, 0xba, 0x3d, 0x8c, 0xbe, 0x92, 0xbd, 0xdf, 0x05, 0x53, 0xbb,
  0x03, 0x87, 0x27, 0xbc, 0x3b, 0x89, 0x43, 0xbe, 0xff, 0x53, 0x0c, 0xbd,
  0xbb, 0x50, 0xe7, 0x3d, 0x12, 0x4c, 0x16, 0xbf, 0xef, 0x14, 0x00, 0x3d,
  0xb1, 0x45, 0x97, 0x3d, 0x40, 0x6e, 0xfc, 0x3d, 0x96, 0xc7, 0x91, 0xbe,
  0xdf, 0xf0, 0x1a, 0xbe, 0x1e, 0x22, 0x9d, 0xbe, 0xe4, 0x48, 0x2c, 0xbd,
  0x98, 0x1c, 0xa5, 0xbe, 0x31, 0x0b, 0x28, 0xbe, 0x3e, 0x72, 0x0d, 0x3d,
  0xd6, 0xad, 0xbe, 0x3d, 0x97, 0x2e, 0x55, 0xbb, 0x10, 0x62, 0x8d, 0xbd,
  0x98, 0x2e, 0xd7, 0xbe, 0x9d, 0x2b, 0xa0, 0xbe, 0x64, 0x66, 0x1f, 0xbe,
  0x05, 0xdb, 0xda, 0xbd, 0x08, 0x1d, 0x93, 0x3e, 0xf4, 0xf2, 0x49, 0x3f,
  0x2c, 0xb2, 0x3f, 0xbe, 0xab, 0xda, 0x6d, 0x3c, 0xc9, 0xee, 0xf0, 0x3c,
  0xe3, 0x2f, 0xc0, 0x3c, 0x58, 0xcc, 0x12, 0xbd, 0xa1, 0x6c, 0x23, 0x3f,
  0x19, 0xda, 0x50, 0x3c, 0x11, 0x8a, 0x10, 0xbd, 0x17, 0xaa, 0xdd, 0xbe,
  0x00, 0x3f, 0xf4, 0x3c, 0x94, 0x87, 0x0f, 0xbf, 0x40, 0x43, 0xe4, 0x3e,
  0x3f, 0x21, 0x6d, 0x3b, 0x9f, 0xa7, 0x13, 0x3c, 0xb5, 0xcc, 0x4d, 0x3e,
  0x67, 0x2b, 0x2e, 0x3e, 0x00, 0x87, 0x4a, 0x3d, 0xbc, 0xb8, 0x8c, 0x3d,
  0x81, 0x28, 0xb4, 0x3e, 0xb9, 0xa8, 0x29, 0x3d, 0xa8, 0x94, 0x3c, 0x3d,
  0xd2, 0x47, 0xb8, 0x3e, 0x99, 0xfd, 0xfb, 0x3d, 0x40, 0xe9, 0x4e, 0x3a,
  0x37, 0xdd, 0xdc, 0x3b, 0x91, 0xb1, 0x0a, 0x3e, 0x35, 0x2a, 0x81, 0xbe,
  0xcb, 0xdb, 0x48, 0x3e, 0x74, 0xa1, 0x03, 0x3e, 0x42, 0xc5, 0xc1, 0x3d,
  0xc5, 0xeb, 0xd4, 0x3c, 0x3f, 0x6d, 0x33, 0x3e, 0x1d, 0x4d, 0x4f, 0x3d,
  0xb4, 0x02, 0x2e, 0xbd, 0x63, 0xf5, 0xfb, 0x3c, 0xf0, 0xc8, 0x9f, 0x3d,
  0x4a, 0x36, 0xbd, 0x3c, 0x52, 0x9d, 0xbe, 0xbd, 0x4a, 0x67, 0xeb, 0x3d,
  0x68, 0xea, 0x8d, 0x3d, 0x37, 0x61, 0x86, 0xbd, 0x54, 0xfb, 0x05, 0xbd,
  0x4e, 0xce, 0x80, 0xbe, 0x0b, 0x6d, 0x3c, 0x3e, 0x17, 0x39, 0x80, 0x3e,
  0x8f, 0x09, 0xa1, 0xbd, 0xff, 0x15, 0x9b, 0x3c, 0x83, 0xd7, 0x80, 0x3e,
  0x36, 0x70, 0xd3, 0xbb, 0x5e, 0x2c, 0x9c, 0x3d, 0x03, 0x89, 0x83, 0x3d,
  0x85, 0xe7, 0x0f, 0x3d, 0xe6, 0x62, 0xf3, 0xbc, 0x9a, 0x30, 0xb0, 0x3d,
  0x9b, 0xc4, 0xcd, 0x3d, 0xcc, 0xe6, 0x74, 0xbe, 0x87, 0x4e, 0xd3, 0xbc,
  0x98, 0x47, 0xe9, 0xbd, 0x0c, 0xc3, 0x2f, 0xbe, 0x6b, 0x69, 0xb2, 0xbe,
  0x7a, 0x8e, 0x80, 0x3b, 0x7f, 0x63, 0xa3, 0xbe, 0xb7, 0xfc, 0x3c, 0x3e,
  0xd5, 0xe5, 0x50, 0x3e, 0xc4, 0x65, 0x30, 0xbd, 0x1c, 0xdc, 0xbe, 0xbb,
  0xf7, 0x3f, 0x4d, 0xbd, 0x87, 0x76, 0xc5, 0x3d, 0xd5, 0x2d, 0x49, 0xbe,
  0x7f, 0x94, 0x5b, 0xbe, 0x3c, 0xe9, 0xb1, 0x3d, 0x71, 0x18, 0xfc, 0xbd,
  0x6b, 0xe4, 0xeb, 0xbd, 0x99, 0x7f, 0x16, 0xbf, 0x55, 0x44, 0xca, 0xbd,
  0x66, 0xc1, 0x0e, 0xbe, 0xd1, 0xcd, 0xaf, 0xbb, 0x12, 0xbd, 0xe5, 0xbe,
  0x3d, 0x71, 0x43, 0x3d, 0xf9, 0x10, 0x38, 0x3e, 0x57, 0x43, 0x32, 0xbd,
  0x69, 0xaa, 0xa1, 0x3d, 0x6f, 0x7a, 0x6c, 0xbc, 0x44, 0x97, 0x9f, 0xbd,
  0xcc, 0x8e, 0x41, 0xbd, 0x1b, 0x21, 0x90, 0x3d, 0x89, 0xe9, 0x0f, 0xbc,
  0x8a, 0x67, 0x00, 0xbf, 0x7a, 0xd8, 0x48, 0xbe, 0x1f, 0xc1, 0x00, 0xbe,
  0x3f, 0xb8, 0x26, 0xbe, 0xdd, 0x04, 0xd7, 0xbd, 0x51, 0x8d, 0x59, 0xbd,
  0xc7, 0xfc, 0x6b, 0xbe, 0xb5, 0x63, 0x51, 0x3d, 0x78, 0xdf, 0x2e, 0x3e,
  0xd7, 0xe5, 0x6f, 0x3e, 0xb6, 0xc1, 0xa4, 0x3d, 0x98, 0xfb, 0x67, 0x3e,
  0x54, 0x01, 0xeb, 0xbd, 0xf4, 0xe9, 0x01, 0x3e, 0x21, 0x71, 0x9c, 0xbe,
  0x2c, 0x82, 0x97, 0x3d, 0x4d, 0x34, 0x71, 0xbd, 0xde, 0x92, 0x86, 0xbe,
  0x06, 0x9f, 0xc9, 0x3d, 0xfc, 0xfd, 0x89, 0xbe, 0x8c, 0x4f, 0x3b, 0x3e,
  0x4c, 0xa9, 0xad, 0x3e, 0xd8, 0x71, 0x74, 0x3e, 0x55, 0x4e, 0xa9, 0xbd,
  0xbc, 0xde, 0x91, 0xbe, 0x55, 0xac, 0x3d, 0xbd, 0x1f, 0x5a, 0xca, 0xbd,
  0x37, 0x47, 0x04, 0xbe, 0x83, 0xd3, 0x08, 0xbd, 0xc3, 0x1d, 0x13, 0xbd,
  0xd6, 0x7e, 0x88, 0x3c, 0x59, 0x68, 0x11, 0xbd, 0xef, 0xd8, 0x86, 0xbe,
  0x7d, 0x76, 0xc4, 0xbd, 0x2b, 0x6e, 0x95, 0xbd, 0x5a, 0x8b, 0x6b, 0xbe,
  0x9e, 0x7c, 0x4e, 0x3e, 0x63, 0x34, 0x2f, 0xbd, 0x1a, 0xc1, 0x14, 0xbc,
  0x99, 0x44, 0x17, 0xbe, 0xbe, 0xf2, 0xf3, 0xbe, 0x42, 0x20, 0x13, 0x3d,
  0xee, 0xb9, 0x1b, 0xbe, 0x34, 0x9c, 0xbb, 0xbc, 0x97, 0xf0, 0x80, 0x3d,
  0xc3, 0xb9, 0x2b, 0xbd, 0xeb, 0x30, 0xa3, 0x3d, 0xaa, 0xf7, 0x55, 0xbe,
  0xf2, 0x9b, 0x9d, 0xbc, 0x59, 0xed, 0x46, 0xbe, 0x20, 0xd2, 0xf3, 0xbe,
  0x48, 0xd1, 0xce, 0xbc, 0xfa, 0x88, 0x57, 0xbe, 0x84, 0xad, 0x09, 0xbf,
  0x29, 0x30, 0x26, 0xbe, 0x60, 0xfd, 0x5c, 0xbd, 0xd5, 0xfb, 0xdc, 0xbd,
  0x48, 0xba, 0x9e, 0xbd, 0xa2, 0x73, 0x4b, 0xbe, 0x8b, 0xc1, 0xbd, 0xbe,
  0xbc, 0xe3, 0x10, 0xbb, 0x04, 0x1f, 0xd1, 0xbe, 0x93, 0x0f, 0x59, 0xbe,
  0xc7, 0xa0, 0x6e, 0xbe, 0x06, 0x0f, 0xec, 0xbd, 0x7d, 0x52, 0x9d, 0xbe,
  0x7c, 0x9f, 0x11, 0xbf, 0x1b, 0x50, 0xe3, 0xbe, 0x55, 0x2f, 0xb2, 0xbd,
  0x17, 0xf2, 0xa9, 0xbe, 0x01, 0x7d, 0x5e, 0xbd, 0xfb, 0xb5, 0x76, 0xbe,
  0xf4, 0x4d, 0xaa, 0xbe, 0xae, 0x69, 0x35, 0xbe, 0x19, 0x5a, 0x8a, 0x3d,
  0x4f, 0x46, 0x2b, 0xbe, 0x64, 0x31, 0x00, 0x3d, 0x0d, 0xcd, 0x79, 0xbe,
  0x41, 0xc7, 0x90, 0x3e, 0x2a, 0xf0, 0x41, 0xbe, 0x94, 0x30, 0x06, 0x3e,
  0xa5, 0xc2, 0x9b, 0xbe, 0x28, 0xa5, 0xb9, 0xbd, 0x72, 0x8d, 0x18, 0xbe,
  0xfb, 0xad, 0x03, 0x3e, 0x6c, 0x80, 0x27, 0xbe, 0xf5, 0xb2, 0x93, 0x3e,
  0x8d, 0x6d, 0x18, 0xbe, 0x99, 0x36, 0x00, 0xbf, 0x0a, 0xa3, 0xa2, 0xbe,
  0xc9, 0xa7, 0x7b, 0x3d, 0x14, 0x66, 0xd0, 0x3c, 0x5a, 0x66, 0x2a, 0xbd,
  0xed, 0xf5, 0x88, 0xbd, 0x1b, 0xc0, 0xe6, 0x3c, 0x2c, 0xca, 0x76, 0xbd,
  0x6c, 0x0a, 0x62, 0x3e, 0xe3, 0x65, 0x12, 0x3e, 0xa1, 0x3b, 0x4e, 0x3e,
  0xc9, 0x9d, 0xb9, 0xbe, 0xf7, 0xc3, 0x06, 0x3f, 0x99, 0x6a, 0x02, 0x3e,
  0x8a, 0x54, 0xce, 0x3e, 0x0d, 0x6b, 0x95, 0x3b, 0xf1, 0xff, 0xcc, 0xbe,
  0x66, 0xa3, 0x39, 0x3c, 0x96, 0xeb, 0x0d, 0xbd, 0x95, 0x62, 0x68, 0x3d,
  0x62, 0x65, 0x11, 0x3a, 0x41, 0xd4, 0x2e, 0xbe, 0x3d, 0x5d, 0xdc, 0xbd,
  0x8c, 0x02, 0x17, 0xbb, 0x66, 0x9d, 0xa0, 0x3e, 0x6e, 0x51, 0xa0, 0xbc,
  0x11, 0x8f, 0xf1, 0x3d, 0x88, 0x64, 0xfa, 0xbc, 0x8c, 0x3e, 0xbf, 0x3d,
  0x49, 0xdb, 0x4b, 0x3d, 0x5e, 0xfd, 0x6e, 0x3e, 0xfc, 0x5a, 0xb0, 0x3b,
  0x2f, 0x4e, 0x58, 0x3e, 0x99, 0x15, 0x99, 0x3e, 0x4e, 0xeb, 0xe1, 0xbe,
  0x92, 0x9c, 0x0f, 0xbe, 0x3f, 0xe8, 0x5b, 0x3d, 0x76, 0x8b, 0xb3, 0x3c,
  0x8a, 0xc2, 0x4e, 0x3e, 0xb9, 0x8f, 0x7b, 0xbe, 0xe0, 0x9f, 0x9d, 0xbd,
  0x86, 0xf9, 0xcb, 0x3e, 0xc2, 0xee, 0xa2, 0x3d, 0xac, 0x98, 0x92, 0x3e,
  0x1e, 0x1f, 0x1b, 0xbe, 0x38, 0x3c, 0x5e, 0xbe, 0xef, 0x20, 0xff, 0x3c,
  0xd1, 0xcb, 0xf8, 0xbe, 0x26, 0x6c, 0x20, 0xbe, 0xf1, 0xff, 0xab, 0x3d,
  0x71, 0x60, 0xad, 0xbe, 0xe1, 0x4a, 0x5b, 0x3e, 0x2b, 0xe2, 0x39, 0xbc,
  0x15, 0x25, 0x60, 0xbd, 0x6e, 0x47, 0xae, 0xbe, 0x3c, 0x9d, 0xdc, 0xbc,
  0x65, 0xf5, 0xc3, 0x3d, 0x8f, 0xc2, 0xde, 0x3e, 0xa0, 0x54, 0x2f, 0x3e,
  0x88, 0x34, 0x5b, 0x3e, 0x28, 0xfa, 0x2f, 0xbe, 0x7a, 0xa4, 0x74, 0x3e,
  0xdc, 0x4d, 0xe1, 0xbd, 0xd2, 0x80, 0x08, 0xbf, 0xe1, 0x38, 0x08, 0xbe,
  0x9b, 0xca, 0x62, 0x3e, 0xf8, 0xb0, 0xc2, 0xbd, 0x5f, 0x1d, 0xbb, 0xbd,
  0x47, 0xf0, 0xad, 0xbd, 0x9e, 0xd9, 0xaf, 0x3e, 0xd8, 0x41, 0x87, 0xbe,
  0xdb, 0xcb, 0x8f, 0x3c, 0xd5, 0xdb, 0xe2, 0xbd, 0xe0, 0xc7, 0x9a, 0x3e,
  0xb6, 0x06, 0xc1, 0x3e, 0xa1, 0x0d, 0xe5, 0x3d, 0x3d, 0x82, 0xa1, 0xbd,
  0x39, 0x37, 0x2d, 0x3e, 0x60, 0xc0, 0x3e, 0xbd, 0xe4, 0x2b, 0x90, 0xbe,
  0x43, 0x58, 0xad, 0xbd, 0xc0, 0x2a, 0x21, 0x3e, 0xe4, 0x7c, 0x54, 0xbe,
  0xed, 0x4a, 0xe9, 0x3d, 0x6a, 0xac, 0xb9, 0xbd, 0x54, 0x6f, 0xd7, 0x3e,
  0x77, 0xa8, 0xd5, 0xbd, 0x2a, 0xd3, 0xc0, 0x3d, 0xcc, 0x4e, 0xdd, 0x3d,
  0xa4, 0x9a, 0x20, 0x3e, 0x79, 0x7b, 0xca, 0x3e, 0x0f, 0xf6, 0x6e, 0x3e,
  0x43, 0x05, 0x93, 0x3e, 0xe0, 0x44, 0x29, 0x3e, 0x0a, 0x91, 0xf0, 0xbe,
  0x1c, 0x4a, 0x6d, 0xbd, 0xd2, 0x30, 0x55, 0xbe, 0x7e, 0xf0, 0x4b, 0x3e,
  0x54, 0x78, 0x93, 0xbe, 0xe0, 0x86, 0x99, 0xbc, 0x7e, 0xc4, 0x4f, 0xbc,
  0xdd, 0x84, 0x1e, 0x3e, 0x2f, 0x77, 0x35, 0xbd, 0x23, 0xc4, 0x8e, 0x3d,
  0x51, 0x84, 0x03, 0xbe, 0xe0, 0xc9, 0x9f, 0x3e, 0xcd, 0x0d, 0x5f, 0x3e,
  0x04, 0xc3, 0x11, 0x3e, 0x34, 0xb8, 0xd2, 0xbe, 0xd3, 0x75, 0xe9, 0x3d,
  0x98, 0x57, 0xdc, 0xbe, 0x09, 0xc6, 0x12, 0x3d, 0x3b, 0x47, 0x0a, 0xbd,
  0xe5, 0xa9, 0x87, 0x3e, 0x21, 0x4e, 0xa1, 0xbe, 0xfd, 0x2d, 0x36, 0xbe,
  0xc5, 0x86, 0x6c, 0xbd, 0x5e, 0xbf, 0xc6, 0x3d, 0xbe, 0x91, 0xcd, 0x3e,
  0xee, 0x43, 0x9c, 0x3c, 0x7e, 0x1e, 0x10, 0x3d, 0xa6, 0x23, 0x84, 0x3e,
  0x72, 0x65, 0x57, 0x3e, 0xa3, 0x19, 0x20, 0x3e, 0xbe, 0x65, 0xa0, 0xbe,
  0x31, 0x18, 0x06, 0xbe, 0x81, 0x27, 0x83, 0xbe, 0x39, 0x60, 0xbc, 0xbd,
  0x47, 0x3d, 0x96, 0x39, 0xa9, 0x70, 0xa8, 0x3c, 0x23, 0x3d, 0x87, 0xbd,
  0x4e, 0x49, 0x99, 0xbd, 0x5d, 0xfc, 0x13, 0x3e, 0x85, 0xbf, 0x0e, 0xbd,
  0x0b, 0xd1, 0x9c, 0x3b, 0x6d, 0x5a, 0xc4, 0xbc, 0x1e, 0x48, 0x50, 0xbe,
  0xcd, 0x72, 0x14, 0x3e, 0x08, 0xe4, 0x29, 0x3e, 0xea, 0x40, 0xcd, 0x3b,
  0xed, 0xc0, 0xf0, 0xbe, 0xb3, 0xc9, 0xeb, 0xbd, 0x8d, 0x9c, 0x8a, 0xbe,
  0x83, 0xb7, 0x7f, 0xbd, 0x86, 0x16, 0x9c, 0x3d, 0x0a, 0xb5, 0xe4, 0x3c,
  0x66, 0xd9, 0x6d, 0x3c, 0xfc, 0x15, 0x10, 0xbe, 0x70, 0x56, 0xb0, 0xbe,
  0xc4, 0x15, 0x3b, 0xbe, 0xd3, 0x65, 0x0c, 0xbd, 0xe6, 0xc6, 0xf2, 0xbd,
  0x83, 0x26, 0x89, 0x3d, 0xc2, 0x0b, 0x13, 0xbe, 0x18, 0x02, 0xd4, 0xbe,
  0xff, 0x64, 0x05, 0xbe, 0xcd, 0xcc, 0x97, 0x3d, 0xf2, 0x2f, 0xb8, 0x3c,
  0x20, 0x6e, 0x0e, 0xbe, 0xae, 0x2d, 0x43, 0xbd, 0x31, 0x7a, 0xb7, 0xbd,
  0x8e, 0x95, 0xf9, 0xbd, 0x32, 0x15, 0xd9, 0xbc, 0x42, 0x06, 0x5e, 0xbe,
  0x0a, 0xe7, 0x02, 0xbf, 0xd4, 0x65, 0x38, 0xbe, 0xed, 0x9a, 0x14, 0xbe,
  0x19, 0x13, 0x4a, 0xbd, 0xcc, 0xb2, 0xb4, 0xbc, 0x53, 0x88, 0x74, 0xbe,
  0xd6, 0xf9, 0xc6, 0xbe, 0x14, 0x77, 0x88, 0xbe, 0x3f, 0x65, 0x1f, 0x3c,
  0xf7, 0xda, 0x45, 0x3e, 0x31, 0x3e, 0x42, 0xbe, 0x99, 0xff, 0x88, 0x3c,
  0x74, 0xbf, 0xed, 0xbd, 0x36, 0x90, 0xcc, 0xbd, 0x75, 0x49, 0x70, 0xbd,
  0x6c, 0xcc, 0x5e, 0xbe, 0x7e, 0x82, 0x22, 0xbf, 0xa7, 0x83, 0xe5, 0xbd,
  0xa4, 0xfa, 0xde, 0x3d, 0x27, 0xee, 0x8e, 0xbd, 0xb9, 0xdd, 0x1c, 0xbe,
  0x44, 0xa3, 0x26, 0xbe, 0x7d, 0x9b, 0x80, 0xbe, 0x2b, 0xcb, 0x73, 0xbe,
  0xfa, 0xa0, 0x31, 0xbe, 0xb2, 0x91, 0x18, 0xbd, 0x0a, 0x74, 0xc2, 0xbd,
  0xd1, 0x73, 0x60, 0xbd, 0xf9, 0x35, 0xbb, 0xbe, 0x9f, 0xe9, 0x8d, 0xbe,
  0xec, 0x7d, 0xfe, 0x3d, 0x58, 0xe4, 0xfd, 0x3b, 0xb9, 0xe1, 0x13, 0xbf,
  0xb3, 0x09, 0x48, 0x3d, 0xbb, 0xea, 0xb4, 0xbd, 0x09, 0x1b, 0x4c, 0xbe,
  0xc0, 0xac, 0x66, 0x3e, 0x5a, 0x95, 0xd7, 0xba, 0x79, 0x47, 0xe0, 0xbe,
  0x4f, 0x5f, 0x1e, 0x3d, 0x64, 0x00, 0x66, 0xbe, 0x45, 0x9e, 0xc0, 0x3d,
  0x74, 0xe9, 0x77, 0x3e, 0x66, 0x79, 0xb1, 0x3e, 0x5e, 0xfa, 0xe9, 0xbc,
  0xcf, 0x93, 0xc3, 0xbe, 0x56, 0xee, 0x42, 0x3d, 0x13, 0xb6, 0x96, 0x3e,
  0x90, 0x09, 0xf2, 0xbe, 0x00, 0x4d, 0x1a, 0xbd, 0x7d, 0x44, 0xc7, 0x3c,
  0xc4, 0xfe, 0xe7, 0xbd, 0x3c, 0x98, 0x89, 0x3e, 0x90, 0x7f, 0x39, 0x3e,
  0xe5, 0x2d, 0xac, 0x3d, 0x56, 0xd7, 0xf8, 0xbd, 0x25, 0xef, 0x38, 0x3e,
  0xd4, 0xce, 0xae, 0x3d, 0x86, 0xbd, 0x14, 0x3f, 0x05, 0x52, 0xca, 0x3d,
  0x86, 0x33, 0x2f, 0xbd, 0x02, 0xab, 0x01, 0xbe, 0x7c, 0x48, 0x33, 0x3d,
  0xb0, 0xa8, 0x12, 0x3e, 0xec, 0x6e, 0x60, 0xbd, 0x72, 0x02, 0xf0, 0x3d,
  0x32, 0x31, 0x43, 0xbe, 0x83, 0x31, 0x63, 0x3d, 0xf9, 0xdf, 0x13, 0x3e,
  0x83, 0x61, 0xcd, 0x3d, 0xbf, 0xb7, 0xa2, 0x3d, 0xfa, 0xb8, 0x48, 0x3d,
  0xd3, 0xe2, 0x9a, 0x3e, 0x32, 0xad, 0x59, 0x3e, 0x57, 0x77, 0xaf, 0x3d,
  0x6e, 0x02, 0x0e, 0x3e, 0x58, 0x4c, 0x5b, 0x3e, 0xbc, 0xe6, 0x1b, 0xbd,
  0xd8, 0xe4, 0x18, 0xbd, 0x7b, 0x3e, 0x9e, 0x3d, 0xf6, 0xce, 0xd2, 0x3d,
  0x55, 0xf4, 0x42, 0x3e, 0x84, 0x5d, 0x8f, 0xbc, 0x5f, 0xb5, 0xca, 0xbd,
  0xb3, 0x2a, 0x0e, 0xbd, 0xe0, 0x63, 0x19, 0xbd, 0x52, 0x13, 0x84, 0xbe,
  0x1a, 0xc9, 0x58, 0xbd, 0xaa, 0xe2, 0x0b, 0xbe, 0x97, 0x28, 0x8e, 0xbe,
  0xf9, 0x5b, 0x5e, 0xbe, 0x07, 0xd7, 0xc0, 0x3d, 0x54, 0xa6, 0xbe, 0x3b,
  0xb3, 0x02, 0xa6, 0x3e, 0x94, 0x53, 0x4d, 0x3c, 0x48, 0x66, 0x13, 0x3e,
  0xd8, 0xdb, 0x15, 0x3d, 0x97, 0xac, 0xd4, 0x3d, 0x2c, 0xaf, 0xd0, 0x3d,
  0xfb, 0xd7, 0xf6, 0x3c, 0x12, 0x57, 0xc7, 0xbd, 0x71, 0x9a, 0xac, 0x3d,
  0x82, 0xfa, 0x25, 0x3d, 0x62, 0x6c, 0xdb, 0x3d, 0x6d, 0xf1, 0xae, 0x3d,
  0x83, 0x14, 0x97, 0x3d, 0xb2, 0x59, 0x03, 0x3e, 0xdc, 0x8f, 0xe3, 0xbd,
  0x6a, 0x94, 0xbf, 0xbe, 0xc4, 0x89, 0xe6, 0x3d, 0x30, 0xfd, 0x28, 0xbd,
  0x00, 0xc0, 0xba, 0xbc, 0x06, 0xd2, 0xba, 0xb9, 0x3d, 0x86, 0x9a, 0x3d,
  0x32, 0x27, 0x8b, 0x3b, 0x2e, 0x8e, 0xa1, 0xbd, 0x05, 0x86, 0x3e, 0xbe,
  0x1f, 0x10, 0xc8, 0x3d, 0xc5, 0xb1, 0x65, 0xbd, 0x20, 0xb6, 0xdf, 0x3d,
  0xcd, 0x4d, 0x21, 0xbd, 0x28, 0xd5, 0x29, 0x3e, 0x44, 0x22, 0xfc, 0x3c,
  0x88, 0xa6, 0x5e, 0xbe, 0x51, 0x4c, 0x33, 0xbe, 0x85, 0x3f, 0xa1, 0xbd,
  0xaa, 0x94, 0x9a, 0xbd, 0x55, 0x49, 0xbe, 0x3c, 0x73, 0x65, 0xf6, 0xbc,
  0xff, 0x3a, 0x8c, 0xbd, 0x85, 0x76, 0xc2, 0x3d, 0x03, 0xb6, 0x12, 0xbd,
  0x98, 0xd5, 0x32, 0xbd, 0x86, 0x33, 0x45, 0x3e, 0x87, 0xed, 0xcd, 0xbb,
  0x33, 0x5b, 0xb6, 0x3d, 0xbd, 0xc1, 0x56, 0xbd, 0x90, 0xc9, 0xdf, 0xbd,
  0x94, 0x2c, 0x68, 0x3d, 0x68, 0x85, 0x19, 0x3b, 0x20, 0x6f, 0x98, 0x3d,
  0x99, 0x4a, 0xbb, 0xbd, 0x0e, 0xc5, 0x8a, 0xbd, 0xfa, 0x21, 0x4d, 0xbc,
  0x2e, 0x73, 0x81, 0xbc, 0x5e, 0x74, 0x41, 0xbe, 0xb0, 0x11, 0x1b, 0xbe,
  0x35, 0xf0, 0x5f, 0xbd, 0xba, 0x87, 0x3f, 0xbd, 0x9f, 0x34, 0x3b, 0x3d,
  0x58, 0xd0, 0x7c, 0x3c, 0x10, 0x95, 0x08, 0x3d, 0x98, 0x4e, 0xd7, 0xbd,
  0x59, 0x4a, 0xca, 0xbc, 0x64, 0xc1, 0x35, 0x3e, 0xfd, 0xc1, 0x0e, 0xbd,
  0xba, 0x90, 0x39, 0xbe, 0xa8, 0x97, 0x93, 0xbe, 0xaf, 0x5e, 0xb8, 0xbd,
  0x52, 0x56, 0x01, 0xbd, 0x9f, 0x86, 0x2e, 0xbd, 0xb7, 0x5e, 0xd7, 0xbd,
  0x6c, 0x31, 0x62, 0xbd, 0xf2, 0x8a, 0x31, 0xbd, 0xe6, 0xc8, 0x4b, 0x3e,
  0x0b, 0xc1, 0xc7, 0x3d, 0xbc, 0xa4, 0x1d, 0x3e, 0x01, 0x41, 0x74, 0xbe,
  0xa8, 0x6a, 0x78, 0x3e, 0xb4, 0xbc, 0x03, 0x3d, 0x52, 0xca, 0xc6, 0x3e,
  0x37, 0x56, 0x03, 0x3e, 0x87, 0xd6, 0x5e, 0xbe, 0xc4, 0xd2, 0xc5, 0xbd,
  0x0e, 0x10, 0x9d, 0xbd, 0x55, 0x92, 0x15, 0xbc, 0xed, 0x8f, 0xe4, 0xbc,
  0xa7, 0x15, 0xd1, 0x3d, 0x2f, 0x77, 0x4b, 0xbe, 0x03, 0xf5, 0x7f, 0xbc,
  0xa4, 0xd3, 0x35, 0x3e, 0xcb, 0x91, 0xab, 0xba, 0x1d, 0xdc, 0xa3, 0x3e,
  0x39, 0x22, 0x8d, 0xbd, 0x4f, 0xdb, 0xa4, 0x3e, 0x85, 0x2f, 0x85, 0x3c,
  0x34, 0x7e, 0xdd, 0x3e, 0xa0, 0x29, 0x8f, 0x3d, 0x19, 0xad, 0x86, 0xbe,
  0x79, 0xd8, 0x0d, 0xbd, 0xcd, 0x95, 0x6d, 0xbd, 0x0b, 0xbc, 0x83, 0xbc,
  0x91, 0x66, 0x45, 0xbc, 0xf7, 0xf1, 0xbe, 0x3c, 0x03, 0xe9, 0x13, 0xbb,
  0x3e, 0x54, 0x6e, 0xbc, 0x58, 0xea, 0x21, 0x3d, 0x1a, 0x7f, 0x20, 0xbc,
  0xf6, 0x42, 0x9b, 0x3d, 0xed, 0x28, 0xaa, 0xbb, 0x25, 0x70, 0xdd, 0x3d,
  0x1d, 0xd9, 0x12, 0x3d, 0x04, 0x93, 0xa5, 0x3d, 0x2b, 0xd4, 0x31, 0xbe,
  0x31, 0x65, 0x73, 0xbd, 0x24, 0xf2, 0x5a, 0xbe, 0xff, 0x06, 0x1e, 0xbe,
  0x76, 0xc4, 0x2c, 0xbe, 0x53, 0x8f, 0xbc, 0xbe, 0x52, 0x7d, 0x1f, 0xbf,
  0x03, 0x6c, 0x5e, 0xbe, 0xb2, 0xf5, 0x11, 0xbe, 0xaf, 0x4e, 0xad, 0xbe,
  0xe6, 0x74, 0x9f, 0xbe, 0xbe, 0x25, 0x78, 0xbe, 0x15, 0x5c, 0x6f, 0xbe,
  0x49, 0xff, 0xa1, 0xbe, 0xec, 0x2b, 0x86, 0xbe, 0x69, 0x26, 0x1c, 0xbe,
  0x68, 0x53, 0x5a, 0xbe, 0xe6, 0xcd, 0x22, 0xbd, 0xc7, 0x9c, 0x09, 0xbe,
  0xca, 0x6f, 0x80, 0xbd, 0x59, 0xdc, 0x98, 0xbd, 0x73, 0x5d, 0xe3, 0xbe,
  0x64, 0x44, 0xa0, 0xbe, 0x4d, 0x88, 0x0c, 0x3d, 0xef, 0x67, 0x48, 0xbd,
  0xfd, 0xca, 0xa9, 0xbe, 0x68, 0xd2, 0xa6, 0x3c, 0xb8, 0x7f, 0x60, 0xbe,
  0x33, 0x8b, 0xb7, 0x3d, 0xee, 0x25, 0x50, 0xbd, 0x87, 0x43, 0x88, 0xbc,
  0x27, 0xf8, 0x82, 0xbe, 0x53, 0xee, 0x87, 0x3c, 0x22, 0xac, 0x9f, 0xbe,
  0x7e, 0xda, 0x4f, 0x3d, 0x90, 0xaf, 0xfe, 0xba, 0x75, 0x95, 0x3f, 0xbe,
  0xe6, 0xa1, 0xf7, 0xbe, 0x2f, 0x7f, 0xf3, 0xbe, 0xe5, 0xb7, 0xc0, 0xbd,
  0xe3, 0x0e, 0xf8, 0xbc, 0x33, 0x26, 0x6c, 0xbe, 0x01, 0xd0, 0x95, 0xbe,
  0xa4, 0xc1, 0x6d, 0xbe, 0x71, 0xc8, 0xfe, 0xbe, 0x2f, 0xee, 0x82, 0x3d,
  0xa8, 0x61, 0x05, 0x3d, 0xe6, 0x1d, 0x8e, 0xbe, 0x92, 0x59, 0xe8, 0x3d,
  0x63, 0x7c, 0xc7, 0xbe, 0x82, 0xa2, 0x92, 0xbe, 0xd8, 0x1d, 0x05, 0xbe,
  0x1c, 0x97, 0xdf, 0xbd, 0x2b, 0xfb, 0xc0, 0xbe, 0x66, 0x71, 0x73, 0xbe,
  0xf8, 0x73, 0x66, 0xbe, 0xe8, 0x48, 0x0c, 0xbe, 0xf2, 0xda, 0x15, 0xbe,
  0x7a, 0x08, 0x1a, 0xbe, 0xb2, 0xb6, 0x2c, 0xbf, 0xe8, 0xf0, 0x94, 0xbe,
  0xe6, 0x64, 0xf7, 0xbd, 0xbd, 0x5a, 0x02, 0x3e, 0x07, 0x9b, 0x4e, 0xbe,
  0x98, 0x9d, 0x48, 0xbe, 0xa0, 0xde, 0x7a, 0xbe, 0x14, 0x35, 0xa4, 0xbe,
  0xf6, 0xf7, 0xb2, 0xbd, 0x84, 0x42, 0x3c, 0x3c, 0x7d, 0x7e, 0xad, 0xbe,
  0x5b, 0xf5, 0x23, 0xbe, 0xed, 0x81, 0xcd, 0x3e, 0xb5, 0x43, 0xf1, 0xbd,
  0xf8, 0xca, 0x92, 0x3c, 0x6c, 0xee, 0x3b, 0x3e, 0x4b, 0x16, 0x92, 0x3d,
  0x72, 0x0a, 0x78, 0xbe, 0x4b, 0x41, 0x41, 0xbe, 0x91, 0xb5, 0xd3, 0xbd,
  0x2e, 0xb7, 0x49, 0x3e, 0x21, 0xdf, 0x86, 0x3d, 0xff, 0xa8, 0x57, 0xbe,
  0x7d, 0x09, 0x1b, 0xbf, 0x71, 0x8e, 0xaf, 0xbc, 0x9d, 0x00, 0x38, 0x3e,
  0x04, 0x94, 0x9d, 0xbe, 0xc0, 0xf5, 0x98, 0x3c, 0x19, 0x0b, 0xc5, 0xbd,
  0x98, 0x0f, 0xf4, 0xbd, 0xf5, 0x9a, 0x63, 0x3e, 0xf4, 0x71, 0xa6, 0xbd,
  0xb8, 0x06, 0x38, 0xbc, 0xee, 0xa5, 0xa7, 0xbe, 0x16, 0xb5, 0x0d, 0x3f,
  0xc8, 0xd7, 0x3b, 0x3d, 0xa0, 0xc3, 0xfa, 0x3e, 0xdb, 0xd5, 0xa0, 0x3e,
  0xf8, 0x1f, 0x08, 0xbb, 0x83, 0xa3, 0xec, 0x3c, 0x99, 0xc0, 0xff, 0x3d,
  0x8f, 0x85, 0x8f, 0x3c, 0x20, 0x3c, 0x6d, 0xbc, 0x57, 0x37, 0x0d, 0xbe,
  0xde, 0x1e, 0x3b, 0x3b, 0x5d, 0x0f, 0x18, 0x3e, 0x55, 0x54, 0xd4, 0x3e,
  0xed, 0x7d, 0x59, 0xbc, 0x7f, 0x95, 0x14, 0x3e, 0x6c, 0x16, 0xe5, 0xbc,
  0xb6, 0xcf, 0x28, 0x3e, 0xf6, 0xac, 0x50, 0x3e, 0x4d, 0x87, 0xa8, 0x3e,
  0x85, 0x60, 0x86, 0x3e, 0x04, 0x37, 0x2a, 0x3e, 0x7b, 0x8a, 0xb3, 0xbc,
  0x6c, 0xf7, 0x3f, 0xbe, 0x8d, 0xdf, 0x40, 0xbe, 0xac, 0xa1, 0xbe, 0xbe,
  0x64, 0x2c, 0x88, 0xbd, 0x23, 0x0d, 0x32, 0xbe, 0x1b, 0x09, 0x89, 0xbe,
  0x5b, 0x0e, 0xdf, 0xbd, 0x14, 0x7d, 0xdb, 0x3d, 0xbf, 0x1b, 0x00, 0xbd,
  0xaf, 0x8a, 0x92, 0xbc, 0xb5, 0x1b, 0xb7, 0xbc, 0x81, 0x7b, 0x78, 0xbd,
  0x5f, 0xd6, 0x2e, 0xbe, 0x73, 0x89, 0xdd, 0xbd, 0x4f, 0x35, 0x2b, 0x3e,
  0x6b, 0xed, 0x51, 0x3b, 0x82, 0x85, 0x60, 0xbe, 0x03, 0x0e, 0x58, 0xbe,
  0x84, 0x6b, 0x71, 0xbe, 0x78, 0x36, 0x02, 0x3c, 0x92, 0xc9, 0x32, 0x3e,
  0xd0, 0x1a, 0xab, 0xbd, 0x44, 0xc0, 0xb9, 0x3c, 0x9d, 0x0a, 0x87, 0x3c,
  0xa4, 0x05, 0xcf, 0x3d, 0xc8, 0x29, 0xf8, 0x3c, 0x48, 0x4f, 0x56, 0xbd,
  0x1f, 0x63, 0x24, 0xbe, 0x5b, 0xe0, 0x20, 0x3e, 0xeb, 0xd7, 0x1f, 0x3d,
  0x04, 0xdd, 0x6e, 0xbe, 0xb9, 0xf8, 0x21, 0xbe, 0xe2, 0x74, 0x06, 0xbe,
  0xe0, 0xa8, 0x83, 0xbd, 0xf0, 0xc7, 0xe8, 0xbd, 0x63, 0x95, 0x63, 0xbd,
  0xed, 0x11, 0xd6, 0xbc, 0x50, 0xfd, 0x56, 0xbe, 0xcb, 0x3b, 0x10, 0x3e,
  0x3a, 0xbe, 0xd7, 0xbd, 0xc7, 0x3e, 0xb1, 0x3d, 0x72, 0xb6, 0x8c, 0x3d,
  0x3a, 0x71, 0x47, 0xbe, 0x8a, 0x38, 0x3e, 0x3c, 0xb1, 0xdb, 0x43, 0xbe,
  0x75, 0x21, 0x31, 0x3e, 0xfa, 0x0f, 0xb9, 0x3d, 0xc0, 0x06, 0x6e, 0xbe,
  0x44, 0xcb, 0x3d, 0xbe, 0xab, 0x62, 0x72, 0xbc, 0xd3, 0xd3, 0xa9, 0xbe,
  0x09, 0x6c, 0x40, 0xbc, 0x1e, 0x93, 0xe9, 0x3d, 0x76, 0xe5, 0x94, 0xbe,
  0x0e, 0x69, 0xf4, 0xbd, 0xb3, 0x39, 0xf5, 0xbc, 0x96, 0x20, 0xa9, 0xbd,
  0x40, 0xea, 0x50, 0x3d, 0x7a, 0x36, 0x41, 0xbe, 0x68, 0x58, 0x4f, 0x3d,
  0xdb, 0xbf, 0x92, 0x3d, 0x7b, 0x6c, 0xa0, 0xbd, 0xed, 0x1e, 0x05, 0x3d,
  0xd2, 0xad, 0x28, 0xbd, 0x3d, 0xd1, 0xf2, 0xbd, 0xb9, 0xd3, 0xbb, 0x3d,
  0xcb, 0x47, 0x8e, 0xbe, 0x27, 0x58, 0xb6, 0xbd, 0x98, 0xa3, 0xbd, 0x3d,
  0x07, 0xf6, 0xe4, 0xbd, 0x60, 0xb6, 0xf6, 0x3d, 0xaa, 0x79, 0x0c, 0x3e,
  0xc7, 0x0f, 0xeb, 0x3c, 0xa6, 0x10, 0x7f, 0xbe, 0x88, 0xc5, 0x4c, 0x3e,
  0x2e, 0x80, 0x35, 0xbe, 0x04, 0x13, 0x64, 0xbd, 0xe4, 0x19, 0x90, 0x3d,
  0x46, 0x7e, 0x13, 0x3e, 0x9a, 0x35, 0xb7, 0xbc, 0x20, 0x6a, 0xf3, 0x3d,
  0x75, 0xa6, 0x13, 0x3e, 0x23, 0x4b, 0x23, 0xbe, 0x6b, 0x17, 0x14, 0x3c,
  0x69, 0xad, 0x5b, 0x3d, 0xe7, 0x3b, 0xd0, 0xbd, 0xf0, 0xfb, 0x2a, 0xbe,
  0x98, 0xd6, 0xbc, 0xbc, 0x24, 0x40, 0xfe, 0xbc, 0xdf, 0xa6, 0x25, 0xbe,
  0x6d, 0x37, 0x07, 0xbc, 0xdf, 0x74, 0xd7, 0xbd, 0x17, 0x74, 0xf2, 0xbd,
  0xc8, 0x47, 0xdb, 0xbb, 0x2c, 0x6d, 0x07, 0x3e, 0xf2, 0xad, 0xc9, 0xbd,
  0x6c, 0x43, 0xdd, 0x3c, 0xce, 0x7a, 0xc9, 0xbd, 0xf7, 0xac, 0x1e, 0xbe,
  0x3e, 0x46, 0x37, 0x3d, 0xf2, 0xfc, 0x67, 0xbd, 0xec, 0xe7, 0xca, 0x3c,
  0x8a, 0xd3, 0x4a, 0xbe, 0x12, 0x64, 0x42, 0xbd, 0x5c, 0xbe, 0x64, 0xbe,
  0xf1, 0x40, 0xa2, 0xbd, 0xb0, 0xa4, 0xa3, 0x3d, 0x62, 0x69, 0x0f, 0xbe,
  0xb6, 0x7f, 0xd4, 0x3d, 0x28, 0xf4, 0xfe, 0x3d, 0xc8, 0x77, 0x12, 0x3e,
  0x66, 0xfd, 0xff, 0xff, 0x10, 0x00, 0x00, 0x00, 0x07, 0x00, 0x00, 0x00,
  0x14, 0x00, 0x00, 0x00, 0x2c, 0x00, 0x00, 0x00, 0x02, 0x00, 0x00, 0x00,
  0x10, 0x00, 0x00, 0x00, 0x70, 0x00, 0x00, 0x00, 0x17, 0x00, 0x00, 0x00,
  0x73, 0x65, 0x71, 0x75, 0x65, 0x6e, 0x74, 0x69, 0x61, 0x6c, 0x2f, 0x64,
  0x65, 0x6e, 0x73, 0x65, 0x2f, 0x4d, 0x61, 0x74, 0x4d, 0x75, 0x6c, 0x00,
  0xd0, 0xfc, 0xff, 0xff, 0xda, 0xfd, 0xff, 0xff, 0x04, 0x00, 0x00, 0x00,
  0x08, 0x00, 0x00, 0x00, 0xff, 0xff, 0xff, 0xff, 0x70, 0x00, 0x00, 0x00,
  0x00, 0x00, 0x0e, 0x00, 0x18, 0x00, 0x08, 0x00, 0x07, 0x00, 0x0c, 0x00,
  0x10, 0x00, 0x14, 0x00, 0x0e, 0x00, 0x00, 0x00, 0x00, 0x00, 0x00, 0x02,
  0x10, 0x00, 0x00, 0x00, 0x06, 0x00, 0x00, 0x00, 0x10, 0x00, 0x00, 0x00,
  0x2c, 0x00, 0x00, 0x00, 0x01, 0x00, 0x00, 0x00, 0x02, 0x00, 0x00, 0x00,
  0x18, 0x00, 0x00, 0x00, 0x73, 0x65, 0x71, 0x75, 0x65, 0x6e, 0x74, 0x69,
  0x61, 0x6c, 0x2f, 0x66, 0x6c, 0x61, 0x74, 0x74, 0x65, 0x6e, 0x2f, 0x43,
  0x6f, 0x6e, 0x73, 0x74, 0x00, 0x00, 0x00, 0x00, 0x38, 0xfd, 0xff, 0xff,
  0x42, 0xfe, 0xff, 0xff, 0x04, 0x00, 0x00, 0x00, 0x0c, 0x00, 0x00, 0x00,
  0x06, 0x6e, 0xe5, 0xbf, 0x1c, 0x67, 0x20, 0xc0, 0x4d, 0xbc, 0x4f, 0x40,
  0x26, 0xfe, 0xff, 0xff, 0x10, 0x00, 0x00, 0x00, 0x05, 0x00, 0x00, 0x00,
  0x10, 0x00, 0x00, 0x00, 0x44, 0x00, 0x00, 0x00, 0x01, 0x00, 0x00, 0x00,
  0x03, 0x00, 0x00, 0x00, 0x32, 0x00, 0x00, 0x00, 0x73, 0x65, 0x71, 0x75,
  0x65, 0x6e, 0x74, 0x69, 0x61, 0x6c, 0x2f, 0x64, 0x65, 0x6e, 0x73, 0x65,
  0x5f, 0x31, 0x2f, 0x42, 0x69, 0x61, 0x73, 0x41, 0x64, 0x64, 0x2f, 0x52,
  0x65, 0x61, 0x64, 0x56, 0x61, 0x72, 0x69, 0x61, 0x62, 0x6c, 0x65, 0x4f,
  0x70, 0x2f, 0x72, 0x65, 0x73, 0x6f, 0x75, 0x72, 0x63, 0x65, 0x00, 0x00,
  0xa8, 0xfd, 0xff, 0xff, 0xb2, 0xfe, 0xff, 0xff, 0x04, 0x00, 0x00, 0x00,
  0x40, 0x00, 0x00, 0x00, 0xb7, 0x52, 0xc0, 0x3e, 0x8e, 0xfa, 0xa5, 0xbf,
  0x78, 0x44, 0xec, 0x3f, 0x89, 0xbc, 0xb7, 0x3f, 0x04, 0xe2, 0xaa, 0xbf,
  0x55, 0x2f, 0x9e, 0x3f, 0x62, 0x4f, 0x73, 0xbf, 0x30, 0x7b, 0x43, 0xbf,
  0x80, 0x9c, 0x56, 0x40, 0x71, 0xb2, 0x54, 0x40, 0x08, 0xa9, 0x94, 0xbf,
  0x50, 0x4f, 0x24, 0xbf, 0x1a, 0xf0, 0x7e, 0xbf, 0x38, 0x98, 0x08, 0xc0,
  0x45, 0x37, 0x27, 0xbf, 0x78, 0xdf, 0xc0, 0xbe, 0xca, 0xfe, 0xff, 0xff,
  0x10, 0x00, 0x00, 0x00, 0x04, 0x00, 0x00, 0x00, 0x10, 0x00, 0x00, 0x00,
  0x44, 0x00, 0x00, 0x00, 0x01, 0x00, 0x00, 0x00, 0x10, 0x00, 0x00, 0x00,
  0x30, 0x00, 0x00, 0x00, 0x73, 0x65, 0x71, 0x75, 0x65, 0x6e, 0x74, 0x69,
  0x61, 0x6c, 0x2f, 0x64, 0x65, 0x6e, 0x73, 0x65, 0x2f, 0x42, 0x69, 0x61,
  0x73, 0x41, 0x64, 0x64, 0x2f, 0x52, 0x65, 0x61, 0x64, 0x56, 0x61, 0x72,
  0x69, 0x61, 0x62, 0x6c, 0x65, 0x4f, 0x70, 0x2f, 0x72, 0x65, 0x73, 0x6f,
  0x75, 0x72, 0x63, 0x65, 0x00, 0x00, 0x00, 0x00, 0x4c, 0xfe, 0xff, 0xff,
  0x56, 0xff, 0xff, 0xff, 0x04, 0x00, 0x00, 0x00, 0x40, 0x00, 0x00, 0x00,
  0x51, 0xc2, 0x7b, 0xbf, 0x72, 0x86, 0x75, 0xbe, 0xf6, 0x8c, 0xb9, 0xbe,
  0xe6, 0x05, 0x36, 0x3f, 0x2d, 0x0c, 0x08, 0xc0, 0x85, 0xde, 0x5b, 0xbf,
  0x6f, 0x91, 0x00, 0x3b, 0xcf, 0x32, 0xf2, 0xbe, 0xe6, 0x90, 0x8e, 0xbf,
  0x0b, 0x28, 0xe2, 0xbf, 0xbc, 0xa3, 0xd8, 0xbf, 0x5b, 0x0d, 0x86, 0xbf,
  0x76, 0x4f, 0xd1, 0xbf, 0xf6, 0x59, 0x8d, 0x40, 0x6b, 0x11, 0x6f, 0x3c,
  0xbf, 0xbf, 0xb3, 0x3e, 0x6e, 0xff, 0xff, 0xff, 0x10, 0x00, 0x00, 0x00,
  0x03, 0x00, 0x00, 0x00, 0x10, 0x00, 0x00, 0x00, 0x48, 0x00, 0x00, 0x00,
  0x01, 0x00, 0x00, 0x00, 0x10, 0x00, 0x00, 0x00, 0x33, 0x00, 0x00, 0x00,
  0x73, 0x65, 0x71, 0x75, 0x65, 0x6e, 0x74, 0x69, 0x61, 0x6c, 0x2f, 0x63,
  0x6f, 0x6e, 0x76, 0x32, 0x64, 0x5f, 0x31, 0x2f, 0x42, 0x69, 0x61, 0x73,
  0x41, 0x64, 0x64, 0x2f, 0x52, 0x65, 0x61, 0x64, 0x56, 0x61, 0x72, 0x69,
  0x61, 0x62, 0x6c, 0x65, 0x4f, 0x70, 0x2f, 0x72, 0x65, 0x73, 0x6f, 0x75,
  0x72, 0x63, 0x65, 0x00, 0x04, 0x00, 0x06, 0x00, 0x04, 0x00, 0x00, 0x00,
  0x00, 0x00, 0x06, 0x00, 0x08, 0x00, 0x04, 0x00, 0x06, 0x00, 0x00, 0x00,
  0x04, 0x00, 0x00, 0x00, 0x20, 0x00, 0x00, 0x00, 0x6e, 0x45, 0xeb, 0xbe,
  0x85, 0x91, 0xe8, 0xbf, 0x91, 0x1b, 0x09, 0xc0, 0xfd, 0xbf, 0x73, 0xbf,
  0x30, 0x66, 0x53, 0xbf, 0xf8, 0x53, 0x2a, 0xc0, 0x5f, 0xc1, 0x5c, 0xbf,
  0x88, 0x05, 0x2a, 0xc0, 0x00, 0x00, 0x0e, 0x00, 0x14, 0x00, 0x04, 0x00,
  0x00, 0x00, 0x08, 0x00, 0x0c, 0x00, 0x10, 0x00, 0x0e, 0x00, 0x00, 0x00,
  0x10, 0x00, 0x00, 0x00, 0x02, 0x00, 0x00, 0x00, 0x10, 0x00, 0x00, 0x00,
  0x44, 0x00, 0x00, 0x00, 0x01, 0x00, 0x00, 0x00, 0x08, 0x00, 0x00, 0x00,
  0x31, 0x00, 0x00, 0x00, 0x73, 0x65, 0x71, 0x75, 0x65, 0x6e, 0x74, 0x69,
  0x61, 0x6c, 0x2f, 0x63, 0x6f, 0x6e, 0x76, 0x32, 0x64, 0x2f, 0x42, 0x69,
  0x61, 0x73, 0x41, 0x64, 0x64, 0x2f, 0x52, 0x65, 0x61, 0x64, 0x56, 0x61,
  0x72, 0x69, 0x61, 0x62, 0x6c, 0x65, 0x4f, 0x70, 0x2f, 0x72, 0x65, 0x73,
  0x6f, 0x75, 0x72, 0x63, 0x65, 0x00, 0x00, 0x00, 0x90, 0xff, 0xff, 0xff,
  0x14, 0x00, 0x18, 0x00, 0x04, 0x00, 0x00, 0x00, 0x08, 0x00, 0x0c, 0x00,
  0x10, 0x00, 0x00, 0x00, 0x00, 0x00, 0x14, 0x00, 0x14, 0x00, 0x00, 0x00,
  0x14, 0x00, 0x00, 0x00, 0x01, 0x00, 0x00, 0x00, 0x20, 0x00, 0x00, 0x00,
  0x44, 0x00, 0x00, 0x00, 0x2c, 0x00, 0x00, 0x00, 0x04, 0x00, 0x00, 0x00,
  0x01, 0x00, 0x00, 0x00, 0x40, 0x00, 0x00, 0x00, 0x03, 0x00, 0x00, 0x00,
  0x01, 0x00, 0x00, 0x00, 0x0c, 0x00, 0x00, 0x00, 0x63, 0x6f, 0x6e, 0x76,
  0x32, 0x64, 0x5f, 0x69, 0x6e, 0x70, 0x75, 0x74, 0x00, 0x00, 0x00, 0x00,
  0x04, 0x00, 0x00, 0x00, 0xff, 0xff, 0xff, 0xff, 0x40, 0x00, 0x00, 0x00,
  0x03, 0x00, 0x00, 0x00, 0x01, 0x00, 0x00, 0x00, 0xfc, 0xff, 0xff, 0xff,
  0x04, 0x00, 0x04, 0x00, 0x04, 0x00, 0x00, 0x00
};
unsigned int model_tflite_len = 13052;

